Ġ Ġ
ĠĠ ĠĠ
i n
Ġ t
ĠĠĠĠ ĠĠĠĠ
e r
ĠĠ Ġ
o n
Ġ a
r e
a t
s t
e n
o r
Ġt h
Ċ Ċ
Ġ c
l e
Ġ s
i t
a n
a r
a l
Ġth e
; Ċ
Ġ p
Ġ f
o u
Ġ =
i s
ĠĠĠĠ ĠĠĠ
in g
e s
Ġ w
i on
e d
i c
Ġ b
Ġ d
e t
Ġ m
Ġ o
ĉ ĉ
r o
a s
e l
c t
n d
Ġ in
Ġ h
en t
i d
Ġ n
a m
ĠĠĠĠĠĠĠĠ ĠĠĠ
Ġt o
Ġ re
- -
Ġ {
Ġo f
o m
) ;Ċ
i m
č Ċ
Ġ (
i l
/ /
Ġa nd
u r
s e
Ġ l
e x
Ġ S
a d
Ġ "
c h
u t
i f
* *
Ġ }
e m
o l
ĠĠĠĠĠĠĠĠ ĠĠĠĠĠĠĠĠ
t h
) Ċ
Ġ{ Ċ
Ġ g
i g
i v
, Ċ
c e
o d
Ġ v
at e
Ġ T
a g
a y
Ġ *
o t
u s
Ġ C
Ġ st
Ġ I
u n
u l
u e
Ġ A
o w
Ġ '
e w
Ġ <
at ion
( )
Ġf or
a b
or t
u m
am e
Ġ is
p e
t r
c k
â Ģ
Ġ y
i st
-- --
. ĊĊ
h e
Ġ e
l o
Ġ M
Ġb e
er s
Ġ on
Ġc on
a p
u b
Ġ P
ĠĠĠĠĠĠĠĠ ĠĠĠĠĠĠĠ
as s
in t
> Ċ
l y
ur n
Ġ $
; ĊĊ
a v
p ort
i r
- >
n t
ct ion
en d
Ġd e
it h
ou t
t urn
ou r
ĠĠĠĠ Ġ
l ic
re s
p t
= =
Ġth is
Ġw h
Ġ if
Ġ D
v er
ag e
Ġ B
h t
ex t
= "
Ġth at
** **
Ġ R
Ġ it
es s
Ġ F
Ġ r
o s
an d
Ġa s
e ct
k e
ro m
Ġ //
c on
Ġ L
( "
q u
l ass
Ġw ith
i z
d e
Ġ N
Ġa l
o p
u p
g et
Ġ} Ċ
i le
Ġa n
at a
o re
r i
Ġp ro
; čĊ
ĉĉ ĉĉ
t er
a in
Ġ W
Ġ E
Ġc om
Ġre turn
ar t
Ġ H
a ck
im port
ub lic
Ġ or
e st
m ent
Ġ G
ab le
Ġ -
in e
il l
in d
er e
: :
it y
Ġ +
Ġt r
el f
ig ht
( '
or m
ul t
st r
. .
" ,
Ġy ou
y pe
p l
Ġn ew
Ġ j
ĠĠĠĠĠĠĠĠ ĠĠĠĠĠĠĠĠĠĠĠ
Ġf rom
Ġ ex
Ġ O
l d
Ġ [
o c
: Ċ
Ġs e
Ġ le
---- ----
. s
{ Ċ
' ,
an t
Ġa t
as e
. c
Ġc h
< /
av e
an g
Ġa re
Ġin t
âĢ Ļ
_ t
er t
i al
a ct
} Ċ
iv e
od e
o st
Ġc lass
Ġn ot
o g
or d
al ue
al l
f f
( );Ċ
on t
im e
a re
Ġ U
Ġp r
Ġ :
i es
iz e
u re
Ġb y
i re
Ġ} ĊĊ
. p
Ġs h
ic e
a st
pt ion
tr ing
o k
_ _
c l
# #
Ġh e
ar d
) .
Ġ @
i ew
ĉĉ ĉ
Ġw as
i p
th is
Ġ u
ĠT he
id e
a ce
i b
a c
r ou
Ġw e
j ect
Ġp ublic
a k
v e
at h
o id
Ġ= >
u st
q ue
Ġre s
) )
' s
Ġ k
an s
y st
un ction
**** ****
Ġ i
Ġ us
p p
on e
a il
== ==
n ame
Ġst r
Ġ /
Ġ &
a ch
d iv
yst em
el l
Ġh ave
er r
ou ld
ul l
p on
Ġ J
_ p
Ġ= =
ig n
S t
. Ċ
Ġp l
) ;ĊĊ
f orm
p ut
ou nt
} ĊĊ
d d
it e
Ġg et
r r
om e
Ġ âĢ
ar am
c c
Ġ* /
E R
I n
le s
_ s
on g
i e
Ġc an
Ġ V
er v
p r
Ġ un
ro w
b er
Ġd o
l l
Ġ el
Ġs elf
at ed
ar y
Ġ .
' ]
u d
Ġ en
ĠT h
ĠĠĠĠĠĠĠĠĠĠĠĠĠĠĠĠ ĠĠĠĠĠĠĠ
t e
_ c
u ct
Ġa b
or k
. get
Ġ #
a w
res s
o b
N ame
ap p
[ '
Ġal l
or y
it ion
an ce
e ar
Ġcon t
v ent
i a
Ġw ill
I N
ĠĠĠĠĠĠĠĠ Ġ
re turn
Ġ< /
d ata
) ĊĊ
R e
p le
il d
th er
Ġy our
" Ċ
( $
Ġ out
) ,
Ġh as
S tring
s o
Ġ up
a x
Ġde f
Ġb o
g e
al se
O N
p er
ic h
Ġb ut
Ġ Ċ
Ġ _
_ m
ad d
que st
od el
s elf
er y
f t
en s
// //
a ke
. C
Ġg o
Ġf unction
Ġ K
iv ate
Ġ im
Ġcon st
. t
Ġ*/ Ċ
) ;čĊ
Ġv oid
Ġs et
ĠS ystem
c ri
( )Ċ
l i
ĉ if
. m
al ly
s et
e p
âĢĻ s
b o
de f
' ,Ċ
Ġm e
Ġ !
at ch
" >
" ,Ċ
e c
ĠI n
p h
Ġ |
_ f
Ġv ar
en ce
I d
re e
in k
le ct
u g
et h
Ġel se
-------- --------
con t
Ġs o
at ic
Ġl o
p ro
t on
s s
ow n
ab el
o int
ou s
el d
S T
T he
ĠĠĠĠĠĠĠĠĠĠĠĠĠĠĠĠ ĠĠĠĠĠĠĠĠĠĠĠĠĠĠĠĠ
R E
" :
ol or
t p
e g
ke y
u de
ĠS t
ou nd
Ġa r
" );Ċ
en er
s er
b ject
ess age
f er
Ġm ore
ation s
ent s
Ġh is
Ġthe y
. S
Ġ Y
u se
n e
is h
ol d
_ d
i o
i eld
Ġp er
C ont
ing s
## ##
Ġd ata
Ġs a
e f
f o
Ġon e
en g
Ġd is
A T
Ġn ame
Ġtr ue
v al
le d
. f
Ġn e
Ġ end
. T
c re
ar k
lo g
E x
err or
_ id
ur re
ang e
Ġn ull
rr ay
Ġm y
p an
ic t
at or
V iew
L ist
ĉ return
âĢ Ŀ
Ġp re
Ġ x
cl ude
ar g
o v
. h
Ġ >
Ġthe ir
' )
ir st
ic k
g h
L E
O R
Ġpr ivate
t em
čĊ čĊ
us er
Ġ )
c om
. A
" ;Ċ
Ġ id
re ad
Ġwh o
_ b
" >Ċ
Ġt ime
Ġm an
r y
==== ====
rou p
ro p
p ublic
v el
um ber
b le
Ġwh ich
******** ********
Ġan y
Ġf alse
w e
Ġv alue
Ġl i
" )
nd er
g r
Ġn o
p aram
f ig
.c om
Ġa pp
_ l
ion s
. D
ĠC h
Ġab out
Ġa dd
Ġs u
Ġstr ing
I D
Ġo ver
str ing
. l
our ce
_ C
] Ċ
Ġ qu
ĠS tring
c a
S E
Ġ ro
s h
u al
T ype
s on
n ew
er n
Ġa g
A R
] ;Ċ
] .
Ġ ?
ic al
Ġd es
ut h
i x
ay s
Ġt ype
' t
a ult
Ġin ter
v ar
. b
Ġp art
. d
urre nt
I T
E N
en c
( f
r a
v alue
ch o
ut ton
o se
Ġ! =
at er
Ã ©
re ate
ol l
p os
y le
n g
A L
us ing
am es
Ġ{ čĊ
at es
el y
Ġw ork
Ġ em
in al
Ġs p
Ġwh en
.s et
ĠĠĠĠ ĠĠ
) :Ċ
t o
qu ire
ind ow
le ment
pe ct
as h
[ i
Ġu se
. F
pe c
Ġa d
o ve
ce ption
eng th
in clude
ad er
ĠĠĠĠĠĠĠĠĠĠĠĠĠĠĠĠ ĠĠĠĠĠĠĠĠĠĠĠ
at us
T h
it le
r it
v oid
() .
( Ċ
Ġof f
Ġo ther
Ġ& &
' ;Ċ
m s
Ġbe en
Ġt e
m l
c o
n c
erv ice
Ġ %
** Ċ
an n
ad e
ĊĊ ĊĊ
lo ck
con st
pon se
Ġs up
+ +
d ate
Ġa cc
Ġh ad
Ġb u
ĠR e
Ġw ere
Ġf ile
Ġw ould
ĠâĢ ľ
v en
is s
Ġ our
c lass
r aw
Ġy ear
D ata
Ġv al
Ġs ome
f ter
y s
Ġ// /
rou nd
v iew
Ġp e
Ġth ere
Ġsa id
d u
o f
l ine
/ *
d uct
Ġh er
ĠĠĠĠĠĠĠĠ ĠĠĠĠĠ
R es
Ġc o
Ġcom m
is e
m in
ĠĠĠĠ Ċ
# include
eth od
. P
ut e
Ġas s
I nt
as k
lo c
Ġli ke
od y
Ġle t
lo ad
Ġa m
ro l
Ġg r
y p
Ġal so
ĠI t
ur l
if ic
or s
_ P
_ n
ig h
Ġth an
C om
A N
U L
at ing
ĠTh is
re f
_ S
Ġst atic
ro ll
Ġj ust
Ġres ult
i an
id th
Ġthe m
) );Ċ
d er
re ak
C on
: //
u le
.. .
ar ch
em ent
Ġ< <
us h
en se
ar r
Ġint o
c ess
am p
i ed
um ent
Ġ \
] ,
w o
al s
Ġwh at
an c
V alue
= '
ol um
Ġp os
ag es
ay er
Ġs c
u es
" )Ċ
_ T
Ġl ist
( s
Ġc ase
C h
ĉĉĉĉ ĉ
//// ////
pon ent
Ġ z
Ġk n
le t
D E
re d
Ġf e
Ġ} ,Ċ
Ġ ,
( t
Ġf irst
' );Ċ
w ord
Ġ import
Ġa ct
Ġch ar
C T
ĠT r
op le
= {
ĉ f
i ent
c ent
. j
le ction
) )Ċ
Ġon ly
Ġpr int
m er
. W
o ck
Ġ --
T ext
Ġo p
an k
Ġit s
Ġb ack
[ "
Ġne ed
Ġc l
Ġs ub
Ġl a
( (
. "
O bject
Ġst art
f ile
( self
n er
e y
Ġus er
Ġ ent
ĠC om
it s
ĠC on
ou ble
ow er
it em
ver y
ĠW e
lic k
Ġ Q
ph p
t tp
' :
ic s
Ġu nder
Ġ* Ċ
. L
) ;
ic es
Ġre g
) čĊ
ĉ public
S S
Ġth en
re at
i ous
. G
e k
ire ct
he ck
cri pt
n ing
ĠU n
Ġm ay
ĠW h
B o
I tem
str uct
. st
re am
ib le
lo at
Ġor g
u nd
s um
_ in
.. /
_ M
Ġh ow
r ite
' Ċ
T o
w w
Ġpe ople
ind ex
. n
ht tp
( m
ect or
Ġin d
Ġj av
] ,Ċ
ĠH e
_ st
f ul
o le
) {Ċ
Ġsh ould
op y
el p
i er
_ name
ers on
I ON
ot e
Ġt est
Ġb et
rr or
ul ar
ã Ģ
Ġ Ð
b s
t ing
Ġm ake
T r
Ġa fter
ar get
R O
olum n
r c
_ re
def ine
Ġr ight
r ight
d ay
Ġl ong
[ ]
( p
t d
con d
ĠP ro
Ġre m
ption s
v id
. g
Ġ ext
Ġ __
' )Ċ
p ace
m p
Ġm in
st ance
a ir
a ction
w h
t ype
ut il
a it
< ?
I C
t ext
Ġp h
Ġf l
. M
cc ess
b r
f ore
ers ion
) ,Ċ
. re
ate g
Ġl oc
in s
- s
tr ib
ĠI nt
Ġa rray
, "
P ro
( c
ess ion
> ĊĊ
Ġs he
" ]
ap h
Ġex p
ert y
ĠS e
Ġp ar
un c
E T
Ġre ad
pr int
Ġre l
Ġfor m
Ġd r
Ex ception
in put
Ġtr ans
#### ####
ord er
B y
Ġa w
it ies
u ff
pl ay
. add
ĠâĢ ĵ
Ġw ant
Ġcom p
ment s
Ġ| |
a z
b e
Ġn umber
Ġre quire
ĠE x
Ġc ol
Ġ key
em ber
Ġt wo
Ġs ize
Ġwh ere
U T
res ult
ĠĠĠĠĠĠĠĠĠĠĠĠĠĠĠĠ ĠĠĠĠĠĠĠĠĠĠĠĠĠĠĠ
ou gh
or ld
o od
u ch
at ive
g er
are nt
Ġ/ *
Ġar g
Ġwh ile
( this
Ġre c
Ġd if
St ate
Ġs pec
r ide
_ F
Ġlo ok
A M
il ity
et er
âĢĻ t
ĊĊ Ċ
ay out
---------------- ----------------
ag er
Ġc ould
Ġb r
end s
u res
Ġkn ow
et s
ĠI f
ĠS h
. w
b ack
Ġs er
Ġ+ =
Ġf r
() );Ċ
Ġh and
I nd
UL L
I m
() ;ĊĊ
Ġm ost
Ġtr y
Ġn ow
rou gh
> čĊ
ack age
Ġh im
. _
if y
Ġb reak
Ġ );Ċ
re n
# define
it t
Ġa p
ĉ c
( n
ĠY ou
: ĊĊ
- m
Ġe very
ust om
li ent
oc ument
cri ption
E rror
- b
Ð ¾
] [
tr ans
Ġp oint
Ġst d
Ġf il
T ime
Ġm od
Ġ ->
Ġ error
a h
Ġt ext
roll er
lo se
q l
Ġp ol
> </
Ġsh ow
U ser
as ed
Ġ{ ĊĊ
Ġf ind
Ð °
E D
s pan
en u
Ġc urrent
Ġus ed
ce pt
cl ud
Ġpl ay
Ġl og
ut ion
f l
Ġse e
indow s
Ġh elp
Ġthe se
Ġp ass
Ġd own
Ġe ven
as on
u ild
f rom
( d
Ġb l
l abel
el se
Ð µ
Ġ( !
iz ed
() ,
Ġo b
Ġit em
um p
U R
or n
Ġd on
S e
m an
am ple
t n
======== ========
H e
gr am
Ġd id
w n
_ h
iv er
Ġs m
Ġth rough
ĠA n
ch e
Ġin v
ou se
Ġ es
ĠN ew
ex port
m ary
ut o
l er
Ġl ast
Ġe vent
tr y
ï ¼
il y
ign ed
in es
oll ow
ic ense
so le
le ar
( int
Ġag ain
Ġh igh
ht ml
Ind ex
uth or
Ġ/ **Ċ
Ġl ine
E vent
_ D
Ġdo es
it ial
Ġc r
ar s
Ġt em
ca use
f ace
Ġ `
_ A
B utton
at ure
ect ed
E S
ist er
ĉ Ċ
Ġbe fore
a le
o ther
Ġbe cause
ro id
Ġ ed
i k
re g
ĠD e
Ġd ist
} ,Ċ
Ġst ate
Ġcon s
r int
at t
Ġh ere
in ed
Ġf inal
Ġ" "
K ey
L O
Ġd el
pt y
th ing
ĠA nd
Ġr un
Ġ X
y m
. app
Ġv ery
c es
_ N
are d
w ard
l ist
it ed
ol og
it ch
Bo x
if e
Ġa c
Ġm odel
Ġm on
Ġw ay
le te
Ġc all
Ġat t
Ġc al
ver t
Ġde c
le ase
ou n
Ġ} );Ċ
f r
form ation
et ail
Ġn um
a j
qu ery
Ġw ell
Ġo bject
ĠA s
Ġyear s
C olor
I S
Ġdef ault
W h
Ġin s
a int
Ġjav a
Ġs im
ĠA r
m on
t il
() ;čĊ
) :
S et
at ter
Ġv iew
Ġp res
arr ay
W e
A t
Ġb el
Ġman y
M an
end er
Ġbe ing
Ġgo od
ĉĉĉĉ ĉĉ
ation al
w are
. log
{ čĊ
Ġus ing
_ B
Ġ: =
_ w
ist s
l ish
Ġst ud
ĠA l
Ġg u
con fig
ur ing
t ime
ok en
ames pace
Ġre quest
Ġch ild
Ġ Ã
lo b
Ġp aram
Ġ} čĊ
Ġe cho
f unction
**************** ****************
p s
E lement
al k
lic ation
b y
S ize
raw ing
Ġp erson
ĠĠĠĠĠĠĠĠĠĠĠĠĠĠĠĠ Ġ
\ n
ob ject
in ce
E n
F ile
u f
ff ect
A C
Ġst yle
sum mary
Ġ que
_ r
Ġ( $
M odel
id ent
Ġm ethod
I L
ot t
les s
IN G
Ġ( )
Ġex pect
y nc
p ackage
ur s
Ġpro t
. /
p re
Ġ )Ċ
m a
Ġs ur
Ġf ound
In fo
p ar
im es
. e
ain s
Ġp ost
- d
ole an
Ġs l
P E
Ġsu ch
se lect
ain er
Ġth ink
Ġdif fer
. r
/ **Ċ
F F
o ol
pl ate
qu al
ĠF or
Ġm uch
u c
( new
od ule
Ġs om
Ġh ttp
ĠL ist
Ġc ount
Ġin st
ch ar
m it
. id
ak ing
Ġg ener
p x
v ice
_ data
ĠN ULL
} čĊ
id d
ãĢ Ĥ
Ġm ed
or g
id er
ach e
w ork
Ġc heck
we en
Ġ( (
th e
ant s
> <
. B
- c
Ġop en
Ġe st
ĠĠĠĠĠĠĠĠ Ċ
Ġn ext
I M
Ñ Ĥ
O T
Ã ³
Ġf ollow
cont ent
ĠĠĠĠĠĠĠĠ ĠĠĠĠ
Ġin clud
H E
ĠR es
Ġh ref
Ð ¸
Ġc ar
yp es
im age
U n
Ġbo ol
A D
Ġg ame
.F orm
row s
* /
vel op
.D rawing
Ġp ath
is ion
Ġe ach
ĠP l
_t ype
P ath
ne ction
Ġa v
' ).
Ġsup port
EN T
re m
" ).
Ġo wn
Ġc or
c ount
m iss
u ally
Ġm em
st d
i ence
se arch
" ĊĊ
F orm
Ġs ex
en ame
Ġs ign
Ġ et
ĠĠĠĠĠĠĠĠ ĠĠ
', '
ĠA pp
Ġth ose
o ff
Ġ err
Ġs ystem
Ġbe st
c ode
Ġs ame
Ġd i
us s
Ġc reate
ath er
A rray
. in
f e
S ervice
U N
at s
Ġ Z
al th
Ġm ade
tr ue
A B
Ġm ark
r id
if ied
, čĊ
y n
p ress
Ġg roup
Ġf in
ĠL icense
F ield
eg er
Ġw orld
in ess
t y
Ġpro cess
( b
Ġc re
ar n
iv es
Ġm ain
ide o
_ g
A G
val id
im g
P I
Ġc olor
Ġre port
Ġt ake
ri b
O M
Ġd ay
Re quest
Ġs k
b ers
ĉ s
.A dd
o ot
Im age
Ġcom ple
ol lection
Ġto p
Ġf ree
A S
D e
ĠO n
I G
et a
D ate
Ġa ction
O ver
it or
ĠĠĠĠĠĠĠĠĠĠĠĠĠĠĠĠ ĠĠĠĠĠĠĠĠĠĠĠĠĠĠĠĠĠĠĠ
n ot
Ġind ex
h er
ic on
O n
;čĊ čĊ
iv ity
m and
.W indows
O L
Ġre al
Ġm ax
l and
.. ..
r aph
Ġbu ild
le g
ass word
? ĊĊ
âĢ ¦
o ok
u ck
Ġm essage
t est
iv ers
Ġin put
Ġar t
Ġbet ween
G et
ent er
g round
en e
Ã ¡
.l ength
N ode
( i
C lass
f or
ĠâĢ Ķ
t en
o in
Ġ ke
u i
ĠI N
Ġt able
s ub
ĠL e
Ġhe ad
Ġm ust
//////// ////////
. util
Cont ext
Ġor der
Ġm ov
o ver
Ġcont in
Ġs ay
st atic
.T ext
Ġclass Name
pan y
Ġt er
he ad
r g
Ġpro duct
Th is
. âĢĿ
ĠB ut
lo y
Ġd ouble
s g
Ġpl ace
. x
m essage
Ġin formation
pr ivate
Ġo per
c ed
d b
"> </
P aram
ic le
Ġwe ek
Ġpro p
t able
id get
pl ace
P rop
ĠA ll
el s
bo x
.ĊĊ ĊĊ
. R
ĠT o
it er
S h
ur ation
old er
_l ist
c ome
Ġs w
iz ation
ĉf or
b l
Ġpro gram
( e
a pe
che ck
.Form s
Ġu nd
ateg ory
ag s
Ġres ponse
U S
re quest
Ġstr uct
es cription
Ġc ode
_ H
uff er
Ġwith out
lob al
Man ager
il ter
P O
ĉ this
o ption
Ġs ol
Ġ= ==
ak es
Cont roller
M essage
Ġre f
e ver
ĠS o
ain ing
.app end
Ġst ill
Ġpro vid
Ġass ert
m ed
Ġc ap
us iness
Ġre p
t ings
v ed
. N
ap i
O D
Ġf ield
iv en
ot o
âĢ ľ
c ol
( x
g ht
Res ult
C ode
. is
l ink
Ġc our
A n
Ġte am
ĉ int
if t
Ġse cond
Ġgo ing
Ġr ange
_ E
n ess
Ġf am
Ġn il
ĠC ont
ail able
ut es
at ab
Ġf act
Ġv is
( &
ĠA N
A l
t itle
Ġand roid
C E
\ "
ir t
Ġw rit
Ð ½
ĉ m
ft ware
on d
Ġre t
os ition
Ġh ome
Ġle ft
arg s
mer ic
Ġd irect
oc i
P l
A s
re t
ad o
O f
ch n
ĠG et
e e
ro ss
() ;
__ __
.p h
I t
out e
Ġex per
cho ol
ww w
} ,
Ġall ow
Ġ Â
() )
s ize
is m
a i
tr act
an e
.. .ĊĊ
cont ext
Ġbe g
C H
Ġp age
h ip
n o
c ore
s p
Ġdiffer ent
i able
ĠM e
_ IN
b utton
ĠI s
erv ices
Ġc a
Ġa round
A pp
r ation
Ġre ce
Ġre ally
Ġim age
Ġt arget
Ġde p
opy right
tr a
ing le
it al
L ayout
Ġbo th
Over ride
ar m
= >
ater ial
ile d
Ġp ut
Q u
Ñ Ģ
un g
m ap
ĉĉĉĉ ĉĉĉĉ
Ġle vel
Com ponent
bo ok
cre en
_ RE
Ġcon fig
ã ģ
O r
. data
Ġd ocument
", "
trib ute
u x
L og
fer ence
p ost
_ e
Ġloc al
and om
ass ert
V al
lect ed
in a
atab ase
A dd
Ġcont ent
.p rint
s igned
r ic
." ĊĊ
Ġf a
! ĊĊ
- f
iv ed
Ġ quest
. ex
Ġf loat
Ġde velop
Ð¾ Ð
M ap
ad ing
Ġpos s
U E
n amespace
_ O
ĉ b
.G et
> (
j son
etail s
Ġto o
Ġext ends
ĠN one
Ġf ore
( String
form at
Ġg reat
int er
ca le
Ñ ģ
r on
iv ing
E nt
enc y
x t
o y
Ġmon th
Ġh app
Ġsup er
b ar
def ault
_ de
ord s
l n
( {Ċ
ĠI nd
as es
Ġt itle
Ġcont ext
o h
- p
E m
Ġm et
T est
Ġl ife
_ v
ĠU S
U I
oc ation
m d
Ġ[ Ċ
Ġ ]
s w
Ġin cre
s cript
ent ial
w ays
. de
Ġs rc
Ġc atch
ĠA meric
// Ċ
ĠĠĠĠĠĠĠĠ ĠĠĠĠĠĠ
Ġp ay
pl it
âĢ Ķ
Ġc oun
ob j
.ph p
Ġch ange
eth ing
' re
ast er
lo s
l ation
ĠĠ Ċ
L e
Ã ¤
( {
read y
ĠN o
Ġpos ition
Ġo ld
Ġbo ok
able d
b ug
H and
} ;ĊĊ
is play
av ing
Ġgo ver
Ġv ersion
S ystem
n ect
res ponse
St yle
U p
ang u
Ġth ree
in it
er o
Ġl aw
end if
Ġb ase
em ail
( l
_ V
Ġcon f
AT E
Ġd uring
t es
Ġcon sole
ĠP r
Ġs pe
v es
p ath
ial og
d ition
_t o
ard s
Ġagain st
et work
ĠP h
_ L
c ur
im it
W ith
Ġp ower
i um
' ;ĊĊ
Ġw om
le ft
our ces
at ri
ĠI m
ĠM an
or th
$ {
qu als
es e
_s ize
Ġis s
ot al
- g
i que
r ame
Ġw idth
er g
) (
itt le
T R
ĠThe y
enc es
r l
on s
Ġl abel
. y
- t
up date
an el
s c
.t o
Ġpro ject
Ã ¼
Ġe lement
Ġsu ccess
ĉĉ Ċ
.s h
r am
ch ed
() )Ċ
Ġ( Ċ
Ġd ate
Ġto t
_ ST
A ll
ific ation
ĉ var
Ġt ri
ch em
m y
Ġb ig
ĠA d
ĠA t
ot s
n um
A ct
Ġm ap
er a
co pe
. $
, âĢĿ
Ġp op
Ġf ew
Ġl en
u id
et ers
u les
Ã Ń
s ource
http s
Ġd em
Ġe ar
######## ########
Ġm atch
or ies
ac es
ĠC l
Ġn ode
ir c
loc al
un ity
} ;Ċ
Ġan other
< <
og le
Ġs it
ew ork
T E
. I
N S
olog y
ou ght
.C ont
> >
Ġc are
st ate
ĉ private
Ġe ffect
++ )
_f ile
end ing
L ine
F or
i or
ĠS c
Ġf un
.S ize
ĉ else
] )
st art
v ious
Ġ} ,
our s
Ġle g
Ġs ervice
Ġs ince
ir on
L abel
Ġn on
Ġl os
ict ion
Ġf ull
act er
bo ard
g ress
Ġt urn
ith er
.s ize
Ġb ody
res h
et urn
( _
y les
orm al
p i
Ġsom ething
! --
u int
Ġpro du
Ġst and
Ġpro ble
Ġav ailable
m t
ĠB l
Ġ ...
Ġb lock
In put
Ġke ep
C ount
op en
Ġ[ '
Ġth row
uild er
A ction
Ġth ings
Tr ue
Ġ url
ĠB o
print f
Ġre d
j s
.c reate
ĠO r
St atus
In stance
Ġcont rol
Ġcom e
Ġc ustom
loc ation
m odel
Ġ čĊ
Ġs ource
Ġe as
. out
] ĊĊ
one y
Ġaw ait
Ġpart ic
A P
ub lish
od es
_p ro
p ly
rit er
Ġpro v
Ġm ill
H T
] )Ċ
Ġch ang
Ġas k
ĠĠĠĠĠĠĠĠĠĠĠĠĠĠĠĠ ĠĠĠĠĠ
Ġout put
Ġem ail
.p ush
Ġ} čĊčĊ
in ation
atri x
T able
u ccess
] );Ċ
ĠĠĠĠĠĠĠĠĠĠĠĠĠĠĠĠ ĠĠĠĠĠĠĠĠĠĠĠĠĠĠĠĠĠĠĠĠĠĠĠ
Ġdis c
( [
Ġb usiness
he ight
. html
t a
f ield
Ġrequire d
_ R
Ġgover n
} čĊčĊ
le x
. ,
ĠS et
ur ch
// /
t s
a f
Ġm ight
ist ory
S tr
Ġne ver
Res ponse
ar se
ad a
ĠH ow
Ġ* )
Ġ ;
Ġh ard
A d
Ġinter n
us ed
( data
m od
ann el
Ġn p
ug g
Ġ/ >Ċ
Ġcal led
b ody
Ġch o
( r
_s et
ir d
Ġ> =
Ġ} ;Ċ
Ġo ptions
ĠG ener
Ġhe ight
P oint
Y ou
et y
C lick
Ġsm all
Ġ ide
Ġacc ess
angu age
Ġprot ected
Ġj ob
ĠTh ere
D ef
Ġadd ress
Ġu int
N ot
o o
ap s
< div
ain ed
at ur
Ġs um
- w
ĠD ate
Ġl ittle
Ġf ri
Y PE
Ġp ort
e h
pr ing
_p ath
Ġst atus
a im
bo ol
Ġap pe
Ġo s
. name
ens ion
_ G
Ġup date
Con fig
a ff
ER R
Ġ< =
at ely
# if
u ction
ĠT e
Ġl ink
ĠU ser
.f ind
. org
m e
Ġg iven
O ut
# endif
Ġbet ter
P age
Ġfe el
en n
M L
Ġal ready
Ġinclud ing
o ogle
r u
ic ally
pro p
le an
out er
Ġal ways
ord ing
I f
or age
Ġp arent
v is
ĉĉĉĉ ĉĉĉ
Ġg ot
st and
Ġle ss
/ s
ĠA ss
ap t
ire d
ĠA dd
Ġacc ount
p loy
Ġd er
res ent
Ġl ot
Ġval id
ĉ d
Ġb it
pon ents
Ġfollow ing
_ ex
S ON
Ġs ure
oc ial
Ġp rom
ert ies
he ader
.p ro
Ġbo olean
Ġse arch
k en
Ġor ig
Ġ er
E d
E M
a ut
l ing
al ity
By Id
b ed
ĉc ase
eth er
pos it
Ġinv est
ĠO R
Ġs ays
miss ion
AM E
Ġtem p
o ad
Ġre st
in fo
Ġinter est
A rg
Ġper form
pon s
ĠV iew
Ġv er
l ib
( const
U til
List ener
ar ge
Ġm ult
Ġd ie
Ġs ite
../ ../
E L
Ġval ues
Ġ} )Ċ
p en
N o
ic ro
Ġbe h
Ġ' ./
ac y
re c
() ->
ĉ ĠĠĠ
" ))
Cont ent
_ W
ple ment
Ġw on
Ġv ideo
ad i
p oint
% %
Ġg l
erv ed
v iron
I F
ut ed
ã ĥ
' m
Ġc ert
Ġpro f
Ġc ell
ar i
Ġpl ayer
a is
Ġc ost
Ġh um
( R
Ġoff ic
k s
.t ext
at ures
Ġtot al
Ġ*/ ĊĊ
o pe
Ġst at
U M
Ġlo ad
ight s
Ġc lear
u ro
Ġte chn
up port
I R
Ġ row
Ġse em
Ġ q
Ġsh ort
ĠN ot
ip p
G roup
se ction
m ax
ir l
Ġover ride
Ġcom pany
Ġd one
" );čĊ
Ġg re
. Re
Ġbel ie
r ist
Ġhe alth
AN T
() ĊĊ
ĠB e
. value
ĠG r
ott om
Ġarg s
P T
st atus
f unc
um ents
- h
N umber
: čĊ
ĠL og
er ver
Ġ) ,Ċ
am ent
Ġob j
in c
Ġchild ren
ic y
I Z
and s
ab ly
Ġdist rib
Ġc ur
er ial
Ġd ays
re ated
re ct
- l
ir m
idd en
om b
Ġin itial
.j s
Ġ â
Qu ery
Ġon line
im al
. con
a u
U rl
cont rol
ire ction
Ġin stance
OR T
ĠF r
wh ere
Ġjav ax
Ġorg an
ap ter
Ġre ason
o ptions
ĠM ar
( a
Ġwith in
.âĢĿ ĊĊ
O DE
_ DE
ad min
end ed
Ġdes ign
ĠD ata
un e
ĠF ile
ro ot
Ġc ent
Ġa rr
_ add
l en
p age
, '
_ str
Ġb ro
ab ility
ou th
/ c
p ose
irt ual
ear ch
_ url
arg in
H ttp
Ġs chool
av a
Ġcons ider
.l abel
ĠA rray
we b
o pt
.print ln
ul ation
Ġf unc
P L
Ġ" \
ĠT ext
act ory
(f unction
n ull
Ġen g
d own
Ġin clude
ĠE n
ĠD r
Ġd b
! !
s ide
Ġin it
quire d
ĠS he
C olumn
re act
Ġan n
Ġst op
Ġl ater
ĠTh at
ent ion
d f
U G
I LE
Ġc lient
ra ft
ff er
PO ST
el per
Ġlo ve
qu ote
ou d
Ġj son
Ġab le
Ġm en
A X
ĠC opyright
Ã ¶
av ig
re q
C lient
} );Ċ
.C om
er c
il t
pec ial
_c om
ro om
. Name
Ġg ive
am b
i ke
Ġcon dition
cl ient
ator s
: "
Ġc opy
ut ure
ivers ity
ern al
{ {
ĠC an
ou nc
d o
Ġo cc
Ġapp ro
th ers
z e
Ġe ither
ĠF l
Ġimport ant
Ġle ad
at tr
AR T
E qual
Ġd a
et ch
ent ity
Ġfam ily
add ing
Ġo ption
Ġex ist
ic a
ĠO bject
' ve
v ers
ition al
out put
ĠTr ue
ĠO F
_t ime
Ġof fer
Ġ} );ĊĊ
H ER
eg in
" "
Ġw ater
Ġc he
ĠM y
ore d
Ġst ep
anc es
C K
A Y
à ¸
str uction
( C
ou ch
St ream
act ive
am a
Ent ity
pro duct
() {Ċ
Ġgovern ment
ĠI D
aj or
A nd
Ġdis play
Ð »
Ġt imes
Ġf our
Ġf ar
Ġpres ent
ĠN S
Ġ\ Ċ
ue st
Ġb as
e cho
ch ild
if ier
Hand ler
Ġl ib
Prop erty
trans lation
Ġro om
Ġon ce
Ġ[ ]
cent er
================ ================
Ġresult s
Ġcontin ue
Ġt alk
_ get
Ġg row
.s w
e b
ĠP ublic
O P
ec ute
ol s
Ġ **
" );ĊĊ
Ġm ass
ure d
.c lass
om ic
Ġme an
ip s
Ġa ut
);čĊ čĊ
Ġun til
Ġmark et
Ġare a
u it
Ġl ength
ĠW ith
struct or
e vent
"> <
ĠS p
I V
Ġm us
if f
Ġk ind
a uthor
ound s
m b
_ key
w idth
posit ory
Ġl ight
u k
R ow
oh n
al f
viron ment
app er
ollection s
Ġs ide
_in fo
Ġex ample
im ary
Ġw r
Ġc amp
cri be
" /
Ġm iss
w ay
Ġb ased
Ġpl an
V is
om ain
un k
Ġaw ay
U P
< T
O S
i od
ĠM on
âĢĻ re
Ġli k
Ã §
iv ely
. v
im er
iz er
S ub
Ġbut ton
ĠU p
Ġexper ience
C L
Ġre nder
_ value
Ġn ear
UR L
al t
Ġcoun try
ib ility
() ,Ċ
e ad
Ġa uthor
Ġspec ific
b ase
( name
on es
ĠD o
Ġal ong
y ear
Ġexp ress
. '
en v
Ġbeg in
Ġso ftware
Ġim p
Ġw in
Ã³ n
Ġth ing
Tr ans
ĠT HE
Ġ< ?
Ġwh y
Ġdoes n
i j
g ing
ĉ g
Ġs ingle
off set
ar ning
og raph
le y
_c ount
Ġan al
cre ate
/ m
ĠR eg
un ch
= $
is k
Ġright s
( M
Ġ"" "Ċ
ap er
.m odel
Ġp o
em pty
art ment
Ġa nt
ĠWh en
Ġwom en
ĠE d
Ġse ason
Ġde st
Ã £
( h
Ġposs ible
Ġse ver
Ġb tn
Ġdid n
Ġs ent
Ġen c
Ġcomm and
Ġ ],Ċ
_ x
Ġre cent
ol ution
v ector
ĠB y
ĠM ay
ĠA ct
» ¿
Ġm oney
IN T
bs ite
ĉ p
. čĊ
ï »¿
s l
atter n
ĠC lass
Ġto ld
ud io
c urrent
Ġe qu
Ġa uto
ĠSt ate
d a
ms g
)) ;ĊĊ
Ġwork ing
Ġqu ery
ĠB r
Ġw indow
a uth
on ly
ĉ t
Ġle ast
ag n
Ġex pl
it ter
ar ing
Ġc olumn
ĠGener al
": "
er al
ri or
Ġrec ord
I B
E X
Ġd at
Ġm aking
u ed
ĠC ar
em p
" .
ĠM ed
Ġc lose
Ġper cent
Ġp ast
( g
: (
Ġw rite
Ġm ove
Ġp at
Cont rol
.T o
Ġv i
*/ Ċ
in ate
' ll
ag ed
N ull
Ġspec ial
IZ E
Ġc ity
/* Ċ
ĠE ng
ix ed
in ary
p y
Ġe ff
ar io
Ġt ell
av or
Ġse lect
le vel
im um
op er
B uilder
I P
') ,Ċ
es c
Ġf ont
" ;ĊĊ
ĠA m
ish ed
ill s
Int er
O W
Ġcour se
Ġl ate
idd le
Ġam ount
Ġas ync
in o
c ul
Ġ ì
and le
_ user
Ġb en
ĠC al
Ġ$ _
ĠR ep
Ġen ough
T oken
. user
( j
S c
W idth
n ow
at form
Ġlook ing
Ġh old
M odule
IT Y
v o
is on
.D ata
y c
Ġp ot
ĠTr ump
id ual
id es
r t
Ġprop erty
ĠĠĠĠĠĠĠĠĠĠĠĠĠĠĠĠĠĠĠĠĠĠĠĠĠĠĠĠĠĠĠĠ ĠĠĠĠĠĠĠĠĠĠĠ
am ework
g o
Ġl ow
Ġpar a
Ġpr ice
ur y
Ġto day
ro y
Ġ' /
Ġpol it
Ġ' '
ym b
P h
Ġad v
Ġatt ack
ĠS te
RO M
an a
Ġme ans
Ġst ory
id s
ak en
Ġme et
Ġm om
ĠâĢ ĺ
Ġ? >
Ġd en
ob ile
ch ange
ĠĠĠĠĠĠĠĠ ĠĠĠĠĊ
ic i
n a
ĠF orm
Ġs ort
Se lect
p are
Ġth ought
_ con
Ġt ask
oc us
ĠD E
ĠM in
Ġo pt
ĉb reak
um er
K E
th en
Ġd et
ĠT est
port s
Ġre view
(' /
m ove
Ġsw itch
ER T
p atch
ann ot
ã Ĥ
Ġab ove
it ive
Ġquest ion
ĠQ u
ãĢĤ ĊĊ
g le
Ġw ord
Ġprov ide
ĠR eturn
Ġre search
Ã£ o
u str
Ġp ublish
chem a
} }
ĠC ON
- in
all back
Ġco ver
\ \
c olor
ĠI S
Ġwh ether
im ate
is c
B ar
Ġd iv
B e
our n
Ġh aving
le m
pl ayer
ab s
am era
ne y
Ġex c
get her
pl ied
a o
[ $
Ġ+ +
i pe
sh ow
/ d
[ :
ag ement
le v
_ ID
r ary
ad es
_ se
a use
Ġem ploy
Ġ*/ čĊ
Ġf re
Ġ' @
Ġcomple t
Ġl arge
r al
\ x
Ġf ac
< String
Ġcre ated
up er
.st ate
Ġh ost
ener ic
/ b
( !
wh ile
i as
B UG
Ġ );ĊĊ
Ġro le
Re g
ĠC olor
St art
Ġp orn
t op
Ġwe b
Ġde v
Ġde al
++ )Ċ
Int eger
pos ition
. on
Ġ( "
ä ¸
Ġproble m
s v
Ġp ress
AB LE
AT ION
ĠSe e
an ch
Ġth ough
le ep
Ġ< !--
Ġpoint s
ĠĠĠĠĠĠĠĠĠĠĠĠĠĠĠĠ ĠĠĠĠĠĠĠĠĠ
. J
Ġ ::
p tr
D B
++ ;Ċ
.p ng
n ode
so ft
pon d
Ġe ver
-------------------------------- --------------------------------
M enu
(' #
Ġs ervices
p g
} )Ċ
param s
Ġact ually
Ġ" /
Em pty
M ethod
Ġid ent
un ic
Ġmill ion
Ġa ff
st yle
Ġcon c
i os
ign ment
UL T
P r
" ;čĊ
Ġunder stand
u ary
Ġhapp en
Ġser ver
ĠC o
S C
Ġle s
Ġfile s
G rid
s ql
Ġof ten
Ġin fo
_ tr
s rc
on y
Ġsp ace
um b
Ġpass word
Ġst ore
, ĊĊ
ĠWh at
g ed
ĠF alse
U s
sw er
_ index
Ġform at
m ost
s m
N ew
Ġd etails
Ġpro b
ĠAN D
() čĊ
il ar
Ġ$ {
ry pt
.C ollections
$ this
ĠF ree
_ of
(f alse
d ated
Ġ> >
Ġf ace
CT ION
Ġs ave
Ġt yp
de v
(" #
AG E
cont ainer
ed it
Q L
Ġitem s
Ġs ocial
i en
ĠRe act
) .ĊĊ
Ġm ar
Ġre du
ĠR E
.p ut
Ġm ajor
C ell
n ext
Ġexpect ed
Ġy et
Ġin div
trib utes
at is
am ed
Ġf ood
S ource
( string
Ġ+ Ċ
it es
d r
Ġmem bers
Ġcom b
item s
ĠP er
T H
= True
Ġb ar
_ SE
com m
( w
)ĊĊ Ċ
Ġs end
Ġin c
un signed
F A
Ġparam s
app ing
ro s
ug in
f a
Ġcon nection
Ġ} ;ĊĊ
Ġbe come
M ode
Ġe v
Ġdif f
ĠUn ited
He ight
ful ly
im ages
Ġm akes
Ġg lobal
Ġcont act
' :Ċ
Ġab s
Ð° Ð
f loat
Ġex cept
ĠP ol
Ch ild
t yp
Ġcert ain
i Ã³n
O UT
Ġim pro
ile s
Ġ-- >Ċ
ĠP art
val ues
os s
/ **
il it
ĠE vent
cur ity
st er
Ġchar acter
Ġnew s
Ġ" ,
Ġde vice
c el
log in
he et
Def ault
@ "
ĉ Ġ
c lick
( value
ĠA b
Ġpre vious
ERR OR
oc al
Ġm aterial
Ġbel ow
ĠCh rist
Ġmed ia
co ver
ĠU I
Ġf ail
Ġbl ack
Ġcom ponent
ĠAmeric an
Ġadd ed
Ġbu y
st it
Ġc ame
Ġde lete
prop erty
od ing
Ġc ard
rop s
Ġhttp s
Ġro ot
Ġhand le
C C
B ack
em plate
Ġget ting
_b y
m ail
_s h
. assert
ĠD ec
( true
Ġcom put
Ġcl aim
' =>
ĠS ub
Ġa ir
op s
n av
em ents
( id
Ġent er
ang ed
E nd
Ġloc ation
Ġn ight
Ġdo ing
ĠR ed
l in
}ĊĊ Ċ
vid er
Ġp ick
Ġw atch
ess ages
Ġhum an
Ġd am
p end
d ir
Ġt ax
Ġg irl
re et
Ġbo x
Ġstr ong
( v
re l
Ġinter face
Ġm sg
f ect
_ at
Ġh ouse
Ġtr ack
' );ĊĊ
j e
ĠJ ohn
ist r
( S
ub e
Ġc e
itt ed
V ER
* )
p arent
Ġapp lication
an y
.sw ing
Ġp ack
\ u
Ġpr act
Ġse ction
ct x
Ġun signed
.P oint
ĠO ne
Ä ±
ip le
a id
Ñ ĥ
V ector
by te
Ġw ait
ĠÃ ł
Ã ¥
Ġto gether
Ġth rows
F O
' ))
h ost
is ing
. view
Ġter ms
fr amework
- r
Ġapp ly
Ġs ession
O ptions
ugg est
Ġo thers
w itter
Ġf und
In it
__ (
ens or
G ET
Ġsever al
i i
[ j
I O
Ġtem plate
P osition
Ġe con
ach ine
Ġ il
.s pring
m ain
el t
im ent
Re c
m m
ĠUn iversity
urs or
ĠĠĠĠĠĠĠĠĠĠĠĠĠĠĠĠ ĠĠĠĠ
G L
ict ure
ith ub
c er
c ast
F rom
a les
Ġsub ject
p assword
n y
Ġes c
.w rite
ï¼ Į
Wh at
. H
Ġh istory
ĠF e
Ġindiv idual
un it
Ġ-- >
Ġd u
I ST
Ġus ers
f s
f alse
un t
T itle
Ġm ot
Ġf uture
ach ed
Ġstart ed
Ġm ode
Ġ' <
_ array
Ġa x
'] ;Ċ
i res
Th ere
ug ht
t ml
pos ed
ic ult
Ġto ok
Ġg ames
Ġ} }
Ġ? >Ċ
Ġproduct s
I s
Ġb ad
ĠD es
.p ath
' ĊĊ
ĠP ost
av el
( :
Ġneed s
Ġkn own
F l
Ġex ec
Ġse en
um e
Ġb order
Ġl ive
tem p
P er
Ġvar iable
i et
ĠD ef
Ġg e
em e
_b ack
f irst
Ġprovid ed
//////////////// ////////////////
Ġfil ename
Ġh ope
ul y
a uto
f ind
_ string
b tn
it ude
At tribute
Ġyou ng
.t xt
Ġwe bsite
ĠP rop
Ġe y
> ();Ċ
ion al
AR R
iction ary
ur ther
. </
AL L
Ġstud y
il i
Ġn etwork
y l
ist ance
O K
N U
re st
ĠS T
icro soft
Ġl imit
Ġc ut
() :Ċ
Ġc ou
og n
Ġsize of
iv al
Ġw ent
. z
L ink
Ġf ire
Ġac ross
Ġcomm unity
reg ion
N E
Re f
Ġoffic ial
Ġvis it
ol ve
Ġrece ived
Ġto ken
Ġmonth s
Ġan im
Ġpartic ular
st yles
ic o
Ġ ess
.Cont rol
Ġ Ã©
b all
Ġle arn
ind ing
V ar
Ġde cl
( err
LE CT
O ne
ph a
Ġ ~
f ort
as ure
Ġm ind
ĠE nd
C heck
Ġqu ick
" ),
AN D
ut ions
B ase
____ ____
Ġcom ment
IN E
âĢĻ ve
B ut
ĠE l
ĠU s
Ġad min
m ark
ĠN ame
` Ċ
ĠT ype
am ic
p c
lo or
F T
Ġo pp
ck et
) ->
t x
Ġp ur
u el
ymb ol
u ation
ang er
Ġback ground
ec ess
ef ined
.... ....
Ġdes cription
Ġrep resent
") );Ċ
press ion
row ser
Ġser ies
ward s
($ _
a ise
Ġh ot
ac ity
ri es
action s
C reate
ad io
amp les
Ġorig inal
ens ive
f ont
st ream
ï»¿ using
.spring framework
ser ver
Ġb ill
AC K
il ename
Ġfr ame
Ġ= Ċ
Ed it
adi us
Ġd raw
ank s
Ġd eter
Ġcom es
_ int
Ġfore ach
ang le
Ġe lect
pect ed
He ader
ist ration
F alse
ĠG ame
Ġfil ter
Act ivity
Ġl arg
in ition
Ġ" <
is ed
Ġrem ove
ĠTr ans
m et
se e
Form at
Com mand
ĠE X
N one
Ġfr ont
A SE
ĠR ec
ound ation
Ġv o
= \"
( *
Ch ange
.W rite
g roup
i ents
u y
******************************** ********************************
Ġd ig
h r
( -
Ġg en
n umber
ve c
uro pe
ent ry
L L
Ġst e
Val id
'] ,
_p aram
Ġse lected
Ġacc ording
ĠD is
Ġ util
B uffer
_ error
Ġass oci
_S IZE
Ġw or
Ġprint f
r ag
Â ł
D D
ĠV al
Ġact iv
E ng
et ime
Ġv irtual
a ign
a ur
ĠP res
ĠEx ception
Ġany thing
ĠO ff
Ġh ours
Ġw ar
Arg s
ag ing
Ġmodel s
ĠT ime
O b
am s
j oy
Ġear ly
. read
Ġc enter
ĠIn itial
Ġl anguage
l ength
x y
Ġs n
Ġin f
P ost
Ġag o
Ġeas y
_c ode
ĠAN Y
_ ch
Ġdown load
( T
av ed
âĢ ĵ
Ġstud ents
Ġf ig
l ight
x x
Ġbu ffer
ĠD ep
ĠM ath
IT H
Ġvar i
Ġd ue
F actory
Ġp or
Ġe p
ot ype
Ġcan not
Ġwh ite
< int
ter n
Ġreg ister
Ġpre d
cl us
_d ate
Ġ/ **
Ġa uth
Ġ[ ]Ċ
Ġper iod
n own
Ġv ot
Ġs creen
' d
T ypes
Ġt mp
Ðµ Ð
ur al
Ġben ef
_ y
Ġn et
ĠSt ates
'] ['
ĠN e
ĠN OT
Ġn eg
Ġcomm on
s cope
Ġc red
g es
_T YPE
Ġs uggest
o om
.ĊĊ Ċ
Ġac cept
Ġr andom
er m
ĠV ector
w ith
T ER
( str
Ġres pons
Ġh it
.S et
gr id
ri a
Ġc lick
und le
C ase
ins ert
Util s
Ġ"" "
Ġim plement
at al
tem pt
tem plate
oc r
return s
Ġplay ers
us ers
ed ef
ĠTh ese
Ġam ong
Ġde b
h a
.get Element
Ġc irc
Ġan swer
Ġw alk
Ġt reat
ĠG e
ĠC reate
Ġa ge
Ġre q
O ST
ang ular
Ñ ı
Ġf ive
Ġdistrib uted
Ġfri end
T P
Ġc lean
ow s
.Control s
d is
Ġw ords
. io
z y
Ġhe ader
ĠC heck
âĢĻ m
j ust
h older
=" <?
ĠG NU
ĠC ol
im est
ent ic
{ ĊĊ
Ġt re
l ast
l a
ĠY ork
L o
Ġdisc uss
ĠG od
Ġiss ue
re w
W indow
Ġl and
Ġst ream
ĠP ar
Ġqu ality
P ar
_n um
Ġs al
el ves
OR D
( user
Ġwork s
Ġh alf
ens es
v as
Ġpol ice
(" /
u a
Ġsim ple
Add ress
Ġem pty
es h
Up date
ĠC reated
(' .
). Ċ
ĠĠĠĠĠĠĠĠĠĠĠĠĠĠĠĠ ĠĠ
Ġag re
ĠF ROM
Ġco ok
Ġevery thing
il ities
.st atus
Ġrel ations
ext ern
Ġno thing
Ġrun ning
ĉ void
R I
_ a
_C ON
p or
.s ub
re quire
ĠC ity
ĠW est
Ġm or
st ore
E quals
od er
Ġn a
Ġ[ [
Ġ( '
ĠD on
ER S
/ p
.j son
ab or
Ġsome one
_t ext
.c ss
.T ab
ĠS ome
at o
d ouble
Ġsh are
( void
_d ir
Ġ ur
St ack
ĠW orld
. X
str act
H ow
.G eneric
ic les
Ġent ry
Ġchang es
Ġperson al
( A
Ġoff set
_p tr
Ġp ie
ĠJ an
-g roup
m odule
Item s
ĠHow ever
ver age
.F ont
Ġevent s
.m in
Ġinv ol
z a
Ġwho le
Ġneed ed
Ġlik ely
ri ef
OR M
v ersion
Ġf ight
Ġe in
F rame
g en
ĠO ut
avig ation
L ength
il led
qu ence
Ġ! ==
ĠSo ftware
Ġwrit ing
Ġr ate
'] ,Ċ
P anel
in ner
Ġ[ "
Ġt w
c d
Ġ ;Ċ
_st ate
ĠS m
ĠM ark
)) ĊĊ
pro t
ĠM r
m ethod
ustom er
I con
Ġcor rect
( object
ĠM ore
Ġf all
Ġv ol
Ġdevelop ment
ent ly
Ġs i
med i
v ing
P P
ak er
Ġin du
Ġel if
Ġpre t
Ġbelie ve
n s
om et
ĠInt ern
R ect
S o
. error
Re ad
Ġfe atures
Ġmin utes
-- -
as ing
cre t
"> čĊ
. annot
Ġcol lection
' .
Ġsim ilar
Ġt aken
(" %
Or der
'] Ċ
-m d
ĠT H
ac ed
Ġis n
/ j
Ġs on
gr aph
ĠInt eger
Ġn ecess
re en
Ġ um
Ġ\ <
Ġmom ent
Ġbr ing
Ġind ic
ys is
Le vel
ver se
urre nc
_t est
Ġent ire
D own
Ġ}ĊĊ Ċ
( result
ĠRe ad
Ã ¨
M od
Ġtry ing
") ,Ċ
Ġm ember
ĠC or
OD O
- control
un time
ĠS im
D ialog
pl ot
_ on
Ġph ys
} /
Ġn amespace
ĉ čĊ
ac c
Pl ayer
A RE
Ġf oot
Ġbo ard
p art
Ġs us
w ise
ĠM c
Ġp ush
AT A
Ġp lease
ri ed
we et
b it
id ed
V E
ĠS w
U B
Ġt ypes
ed ia
Ġc los
ace book
Wh en
Ġed it
ig ger
Ġen erg
Cont ainer
Ġph ot
ĠC ount
ĠE urope
.I s
ĠR uss
pe ed
ĠS tr
Ġp y
Ġc ult
Ġdef ined
cc ount
Ġob t
.L ocation
Ġth read
il le
Ġinst ead
str ong
ĠS ec
U RE
Ġide a
. se
em y
select ed
Con nection
ac ing
th read
.n ext
Ġc oll
Ġfil m
ist ic
Ġcomp et
Ġcon n
th ough
Ġcom pan
ock et
Ġte ach
= (
Ġph one
Ġact ive
de lete
tr ies
Ġm o
Ġde ath
} );ĊĊ
oc ol
W idget
Ġart icle
ro du
and id
Ñ ĭ
ĠC r
k a
() :
lo od
ĉĉĉ Ċ
Ġal most
Ġs ell
erv let
ri p
Un it
Ġapp lic
Ġcon nect
Ġfe ature
Ġv ia
' ),
Ġl im
ĠĠĠĠĠĠĠĠĠĠĠĠĠĠĠĠĠĠĠĠĠĠĠĠĠĠĠĠĠĠĠĠ ĠĠĠĠĠĠĠĠĠĠĠĠĠĠĠ
ĠG u
Eng ine
Ġen s
Ġen vironment
b lock
HER E
N ULL
g y
t ag
) ).
ex p
Ġcom pl
Ġinst all
Ġcomple te
que ue
atur al
Ġgener al
th on
Ġask ed
o res
( res
Ġres erved
S P
ĠâĢ ¦
Å Ĥ
Ġsign ific
O ff
ĠĠĠĠĠĠĠĠĠĠĠĠĠĠĠĠ ĠĠĠĠĠĠĠĠĠĠĠĠĠ
ĠA g
ĠJ ust
ĠE rror
Ġin fl
ad ata
Ġ icon
ask s
' '
_ LO
? .
ac count
Ġ( *
' )ĊĊ
r ap
_ var
ĠF OR
Ġpart y
ĠY our
c at
str y
. new
bo ot
ĠN ov
Ġv ector
Ġn ormal
Ġf urther
Re pository
Ġd atabase
att le
Ġmus ic
Ġspe ed
Ġd oc
pro cess
IG HT
.p arse
Ġt aking
Ġvi ol
ce ed
ĠA fter
Ġfor ward
Ġc rit
"/ >Ċ
ro t
Ġfa iled
ef ore
Ġconc ern
o e
b a
Ġs ender
Ġter m
h as
=" #
Ġpot ential
N um
Ġpublish ed
.c lose
ĠIm age
str aint
U D
ĠO b
Ġprob ably
l im
" :Ċ
olum e
Ġcon sum
ag ue
ens ions
Ġinvest ig
- year
') ;
-s m
Ġen joy
or ig
er ing
c p
le ased
ple ments
Ġreturn s
p at
B O
ĠH ouse
.L abel
Ġwe ight
igh b
Ġcondition s
Ġex ception
d escription
Ġtr ad
- to
Ġ{ }
Ġmod ule
EN D
. ap
.p rops
Ġcon structor
av es
Ġf avor
ĠN ow
; i
ĠM ain
_ k
er ies
âĢĻ ll
trans form
imest amp
P re
Ġm er
. res
st ant
L ocation
_N AME
Ġlos s
Ġ ĊĊ
n et
Ġeng ine
B lock
Ġiss ues
Ġpar se
ĠB ar
Ġst ay
ĠJ SON
Ġd om
air s
w ner
Ġl ower
", čĊ
ĠD em
uf act
Ġp s
Ġper fect
R L
Ġed uc
l s
em ory
ARR ANT
u ge
Ġex act
. key
al led
e ch
ie f
\ /
o ke
Ġfor mer
al loc
Ġs ix
id a
Ġm argin
Ġhe art
al d
p ack
.getElement ById
ĠW ARRANT
Ġr ather
Ġbuild ing
er man
lic e
Ġquest ions
iz es
le ge
irect ory
Ġj e
Ġc as
pro ps
ut f
Ġse curity
Ġhow ever
we ight
Ġins ide
Ġpres ident
Ch ar
ĠW ITH
.m ap
Ġgr aph
Ġt ag
_st atus
Ġat tempt
op p
us es
ĉ const
Ġr ound
, $
Ġfri ends
Em ail
? >
Res ource
KE Y
os p
. query
ĠN orth
able s
ist rib
_c lass
el lo
Th at
Ð º
pecial ly
ĠPres ident
Ġcamp aign
Ġal t
are a
Ġch all
Ġop port
.C on
Ġenerg y
li ke
. string
ing ton
) *
y y
Ġprof ession
ir th
Ġse g
æ ľ
Ġh or
i ers
c an
Ġbeh ind
Pro duct
f g
ĠS k
.j pg
? :
] ;ĊĊ
Ġcall back
ĠH ttp
Ñ Į
l ong
M S
AT H
Ġr aise
Ġwant ed
row n
ut or
l t
] =
el ine
M A
Ġse par
c s
se mb
D is
bs erv
ĠW ill
Ġpol icy
Ġth ird
ph one
Ġb ed
/ g
. __
ĠIn c
iz ing
.re move
in stance
.t ype
Ġs erv
E ach
Ġh ar
ĠM essage
( key
SE LECT
P os
)) ;čĊ
Ġre comm
Ġtr aining
ĠE nt
ĠCh ar
ic ht
(f ile
Ġp rior
G ame
Ġex it
Param s
.c ore
P C
n es
anc ed
( request
P assword
} >Ċ
Ġm ag
Ġre lease
Ġsh all
ud ent
ĠS outh
and o
: '
.Tab Index
s k
ann er
is set
Ġout side
led ge
Ġ å
ĠR ob
Ġim m
! Ċ
ĠWe b
D es
B C
anc ial
R oute
D ec
fer ences
Ġp urch
ĠM odel
ct or
g n
_st art
_ un
. *
is es
Ġg round
Ġun ique
Ġbe aut
{ "
Ġp our
ĠO ct
Ġt ree
set s
_ res
') ->
_re g
(" \
Ġby te
B l
Ġd ating
Ġm atter
ĠR em
Ġ' ../
ĠA ug
ĠL a
Ġ$ (
ourn al
i am
Ġshow s
w rite
Ġb all
Ġsim ply
Ġf ast
Ġmem ory
A SS
ĠO f
ov ed
ant e
a ul
ist ry
)) );Ċ
Ġf it
< string
Ġpolit ical
anc el
_ .
c ard
.c urrent
o ch
_ image
\ t
# Ċ
( L
Ġindu stry
com ing
Ġex tra
Ġreport ed
.st art
Ġres ources
Ġim g
fl ow
_E X
(n ull
ĠP re
Ġwr ong
inter face
Param eter
n ers
á »
t ure
ers ist
oun try
Ġseem s
al ance
de st
ĉ String
Ġm aint
Ġun it
act ers
ĠT R
if ul
export s
pro ject
App lication
leg ate
Ġt akes
ter m
Ġet c
ust er
Ġappe ar
add ress
Ġf em
h s
Ġh om
, -
Ġdiff icult
Ġcom ing
O pen
Ġset tings
ĠW ar
ĠTh en
Ġaut om
ĠF oundation
Ġqu ite
D escription
Ġb log
i qu
P S
_f ield
J son
SS ION
ĠS ch
ĠL O
Ġdes cri
Ġevery one
Ġpret ty
Ġlong er
Ġm enu
Ġcurrent ly
se c
Ġrelations hip
################ ################
ĠM ap
as et
Ġparam eters
Ġcr ush
" čĊ
IL ITY
ig ration
Ġc out
t otal
Ġn ames
nd ef
") ;
ri end
yn amic
Ġeff ort
Ġact ual
Ġfield s
O UN
t ers
Ġf ix
_m odel
Ġc ases
C A
M y
Inter face
ĠS E
] ]
al le
ĠN ational
ĠArray List
in line
. V
ar a
ref ix
as c
Re ader
ĠÐ ¿
ast ic
( ()
C l
.annot ation
Ġperform ance
ail y
.to String
.n et
view s
. end
ay ers
l ate
ĠA pr
ed eral
'] )
.b ody
Ġhigh er
_f l
c r
al ert
_n ode
ĠG oogle
Ġit self
A uth
urrenc y
Ġsignific ant
app end
Ġres pect
str ap
Ġun a
riter ia
P ORT
.ap ache
Out put
Ġpro gress
Ġm id
ĠM icrosoft
Ġres ource
ab lish
Ġd im
. load
.A pp
Ġd irection
Ġadd itional
ĠĠĠĠĠĠĠĠĠĠĠĠĠĠĠĠ ĠĠĠĠĠĠĠĠ
Ġnum bers
Ġcompan ies
.T h
Ġs ound
user name
Ġstat ement
Ġal ert
Ġcon tract
h ome
_l ength
.Com ponent
e v
. Ex
ï¼ ļ
" ;
ĠH igh
Ġ )ĊĊ
ĠP oint
op h
Ġl ines
-> _
" )ĊĊ
o x
app lication
Ġ ]Ċ
ĊĊĊĊ ĊĊ
Ġso on
ction s
ing er
Ġj oin
ĠP e
Ġ ë
Ġl as
. E
c ss
/ or
ĠSt art
ĠT O
Ġsub s
con n
com ponents
DE BUG
qu are
F unction
end ar
. index
Ġf ill
Ä Ļ
Ġcho ose
h ow
ĠAmeric a
ass ets
-------- ----
ĠV alue
Ġoff ice
Ġv eh
Ġtrans form
ĠAr t
Ġin de
Ġf n
Ġim plements
ang o
ple te
+ "
t mp
am ily
Ġhas h
miss ions
E ST
g t
Pro vider
ĠĠĠĠĠĠĠĠĠĠĠĠĠĠĠĠ ĠĠĠĠĠĠ
Ġfl ag
Ġpartic ip
d en
ĠReturn s
Ġnot e
Ã¼ r
p m
ide os
Ġspec ified
ĠE N
est er
ol id
Ġup on
( std
ĉ v
Ġ' \
u z
Ġv ert
Ġv ict
ĉ self
Ġ" $
. k
Ġgroup s
g ithub
l ang
Ġm ut
T O
Ġv e
ĠP lease
;ĊĊ Ċ
ac cess
Ġ{ "
re a
Ġr isk
ick er
og gle
ĉ while
AN G
.s end
Ġwom an
Ġget s
Ġ ign
ĠI d
_ log
ON E
Ġe vid
ĠH ar
_s ub
Ġend l
Ġinclud ed
() );ĊĊ
ĠA p
ig r
Ġs em
ĠBl ack
d oc
_t able
ĠĠĠĠĠĠĠĠĠĠĠĠĠĠĠĠĠĠĠĠĠĠĠĠĠĠĠĠĠĠĠĠ ĠĠĠĠĠĠĠĠĠĠĠĠĠĠĠĠĠĠĠĠĠĠĠĠĠĠĠĠĠĠĠĠ
- up
Ġca use
Ġ ..
Ġv an
_d ict
Ġf ocus
IN D
CE SS
.L og
Ġmult iple
id o
Ġreg ard
- M
and ler
our se
Ġde g
. U
Ġadd ition
Ġvar ious
Ġrece ive
Ðµ Ð½
ĠH T
Ob j
D F
Ġincre ase
ĠO pen
] ;
Ġcomm it
? Ċ
ateg ories
at ory
sh ip
ĠM ich
Ġh tml
rom ise
Ġle ave
Ġstr ateg
av en
ĠCon sole
k nown
- n
_ LE
.com ponent
Ġb re
S ession
i ance
Ġal ign
typ edef
_ result
ĠW HERE
.s plit
Ġread ing
FA ULT
Ġc lo
Ġnot ice
_p r
ar ter
Ġlo ck
Ġstand ard
et ic
ell ow
Ġp adding
ĠH is
Ġst ates
_c ast
( P
a a
Ġintern al
e an
ĠP RO
ĠK ey
Ġes pecially
m ing
Ġc ross
Ġn ational
_ object
f ilter
Ġs cript
. update
_ i
ĠAss ert
/ core
%% %%
Ġproble ms
ist or
Ġ. =
Ġar ch
Ġwrit ten
Ġm ilit
M ENT
. ch
ca pe
ĠM us
_ config
ĠA PI
fo ot
Ġim ages
end l
. In
F irst
Ġpl atform
.pro t
O ption
st e
ĠT ODO
Ġfor ce
. cont
ĉ echo
ĠD av
P tr
( B
R T
ĠB ase
] ['
Ġann ounc
con sole
ĠP y
d s
. as
Ġpre vent
ap an
Ġ{ '
} </
ĠS ervice
ĠS en
ad or
pro file
T op
Ġit er
p o
I ES
J SON
I E
i ant
ãĢ ģ
_ j
ĠSe pt
_m ap
b um
( context
ĠH ome
i ans
G B
Ġl iving
Ġp attern
( input
ic ient
C ore
Ġent ity
Ġint eg
Ch anged
Ġuse ful
.in fo
Ġto ol
( item
Ġo k
Ġfe ed
I X
Ã© s
ĠNew s
rem ove
err y
ĉĉĉĉ ĉĉĉĉĉ
ip ment
a res
D o
C urrent
. content
.G roup
ustr al
Ġ Ñģ
} )
Ġpop ular
Ġst re
Ġmethod s
_ ERROR
Le ft
c al
bs p
.To String
Ġd ir
Ġallow ed
Ġimp act
") ]Ċ
. config
Ġelement s
Ġpro te
Ġtr ain
. tr
r s
ĠRep ublic
ĠT ask
ar ies
( D
( get
âĢ¦ ĊĊ
Ġrel ated
Ġv ers
Ġs il
Ġ" ";Ċ
Ġc md
Ġtechn ology
.w idth
F loat
ĠU se
B ody
sh ould
.j oin
F ont
ll um
yc le
ĠB rit
Ġm it
Ġs cale
Ġ( _
ern el
") )Ċ
Ġsc ore
/ v
Ġstud ent
U C
.sh ow
Ġa verage
En abled
( ex
com mon
im ation
: @"
ch ie
Ġ ...ĊĊ
r iver
ĠM arch
c ategory
f in
Ġcour t
Ð ²
S erver
Ġcont ainer
- st
_f or
Ġpart s
Ġdec ision
ob s
ou b
m itted
Ġ$ ('#
Ġs aw
Ġappro ach
IC E
Ġsay ing
Ġany one
m eta
S D
Ġs ong
d isplay
O per
out es
Ġch annel
Ġchang ed
Ã ª
Ġfin ally
_n umber
P lease
à ¤
or ing
- re
Ġk ill
Ġdr ug
w indow
Ġcon vert
omb re
Ġw ays
H elper
ĠF irst
( __
ur ity
ĠW indows
e es
Ġm at
r apper
Ġpl us
ang es
" ].
az on
/ t
l at
ast e
Ġpro file
Ġread y
#if ndef
ro te
Ġs ense
G ener
ĠCon fig
om y
ĠJ une
Ġlate st
Ġsa f
Ġreg ion
Ġde ep
w itch
ĠP ark
} `
ĠF rom
I I
Ġc v
Ġre ach
Ġcount er
ĠW ork
ĠU RL
ĠUp date
', čĊ
Ġim medi
c lose
ad os
fer red
Ġweek s
ur g
Ġdam age
Ġl ost
an i
_ lo
Ġhim self
Ġd og
) ]Ċ
ï ¿
p ir
t t
Ġp aper
Ġthe ms
se cond
Ġst aff
ĠIn put
" +
ĠF acebook
Ġal loc
Ġs ched
AC E
Ġthems elves
ĠCom ponent
Ġdr iver
j a
(p ath
Ġc ategory
all s
p u
llum inate
ĠA ction
.b utton
ĠG L
ist ics
Ġo il
Ġst ock
> '
Ġde ad
V AL
Q UE
**************************************************************** ********
Ġch arg
R eturn
Ġf ul
d om
Ġr ules
Ġmod ify
Ġe val
h am
at ement
\ <
ul a
= False
R A
Ġcont ains
Ġst ack
m ar
Ġ{ }Ċ
Ġund efined
A ss
ĠCh ina
ve y
* Ċ
Ġplay ing
) /
act or
Ġb ottom
li er
ĠN umber
Ġcou ple
D C
ĠS O
g or
.set Text
s uccess
com mand
F ilter
ĠO ur
_ item
Ġc tx
Ġro ad
V ersion
c ase
ur t
av ior
y ch
semb ly
ĠPro duct
Ġh eld
a fe
Ġinclud es
< quote
Ġa void
ĠF in
ĠM od
Ġt ab
an o
Ã ±
ipp ing
- e
Ġins ert
t arget
ch an
.M odel
IM E
\ Ċ
Ġm achine
av y
ĠN O
ĠInt er
Ġoper ation
mod al
T ag
] :
Ġprodu ction
Ġare as
Ġre n
_f rom
n bsp
Ġoper ator
m en
app ed
_p er
z en
(" .
.s ave
=" {{
Ġt or
( response
Ġc andid
Ġcon v
a iled
ĠL ib
com p
ur a
ï¿ ½
ĠH ere
Ġarg ument
h ood
Ġest ablish
ograph y
Ġon Click
amb da
Ġs ch
Ġmov ie
Ġse c
Ġact ivity
Ø §
Ġs ql
_ all
inc ip
Ġprovid es
Ġs ys
ack et
Ġwas n
Ġus es
ĠF unction
.g oogle
ĠRes ult
Vis ible
ag ma
el come
ĠS y
ĠC ent
AL SE
ac iÃ³n
EX T
Ġl icense
ĠL ong
Ġacc om
Ġab ility
. height
Act ive
olog ical
ol y
)) ,
.S e
Ġparam eter
pr ite
AB ILITY
.s ervice
ĠG roup
_ query
ĠI tem
in ing
Ġj ud
im s
f ix
ind er
ag ram
Ġfunction s
Ġexper i
ĠE m
Ġro t
Ġp en
.b tn
ĠA S
#if def
Ġcho ice
ĠP age
_P RO
Q U
å ı
ant ity
Â Ń
word s
Ġread only
Ġf lex
prot ected
ĠAn y
Ġchar acters
enc ed
ĠJ uly
il er
C ard
ur ance
Ġre v
.e vent
al y
Ġwon der
ĠP ort
Ġleg al
ro le
Ġt en
Ġgo es
M P
wh ite
): čĊ
)) čĊ
Ġre ference
Ġm is
ĠPro ject
ick s
> &
C ON
Ġre pl
Ġreg ular
St orage
ram ework
Ġgo al
Ġt ouch
.w idget
Ġbu ilt
d es
P art
( re
Ġw orth
h ib
g ame
ĠÐ ²
ac ion
ĠWh ite
(t ype
( `
Ġn atural
Ġin j
Ġcal cul
ĠApr il
. List
Ġassoci ated
ĉ System
~ ~
= [
Ġst orage
Ġby tes
Ġtr avel
Ġs ou
Ġpass ed
! =
as cript
. open
Ġgr id
Ġb us
Ġrec ogn
A b
Ġh on
ĠC enter
Ġpre c
b uild
HT ML
ĠS an
Ġcoun tries
a led
t oken
k t
Ġqu al
L ast
ad ow
Ġman ufact
id ad
j ango
N ext
x f
. a
Ġporn o
ĠP M
er ve
it ing
_ th
c i
= None
g s
Ġlog in
at ives
'] );Ċ
Ä ħ
Ġ ill
I A
child ren
D O
Ġlevel s
Ġ{ {
Ġlook s
Ġ" #
To String
Ġnecess ary
ĠĠĠ Ċ
c ell
En try
Ġ' #
Ġext rem
Select or
Ġplace holder
L oad
Ġre leased
O RE
En umer
ĠT V
SE T
in q
P ress
ĠDep artment
Ġprop erties
Ġres pond
S earch
a el
Ġre qu
ĠB ook
/ Ċ
( st
Ġfin ancial
ick et
_in put
Ġth reat
( in
Str ip
ì Ŀ
Ã§ Ã£o
Ġevid ence
)) ;
ĠB ro
Ġ[ ];Ċ
Ġ ou
b uf
S cript
d at
Ġr ule
# import
=" /
S erial
Ġstart ing
[ index
a e
Ġcon trib
s ession
_ new
ut able
o ber
Ġ" ./
Ġlog ger
Ġrecent ly
Ġreturn ed
č čĊ
)) )Ċ
ition s
Ġse ek
Ġcomm unic
Ġ" .
Ġuser name
E CT
D S
Ġother wise
ĠG erman
. aw
Ad apter
ix el
Ġsystem s
Ġd rop
Ġstruct ure
Ġ$ ("#
enc ies
ann ing
ĠL ink
ĠRes ponse
Ġst ri
Å ¼
ĠD B
æ Ĺ
and roid
sub mit
ot ion
( @
.t est
ĊĊĊĊ ĊĊĊĊ
] ;čĊ
Ġdirect ly
Ġ" %
r is
el ta
A IL
) {čĊ
m ine
ĠĠĠĠĠĠĠĠĠĠĠĠĠĠĠĠ ĠĠĠĠĠĠĠĠĠĠ
( k
b on
as ic
p ite
__ _
M ax
Ġerror s
ĠWh ile
Ġarg uments
Ġens ure
R ight
-b ased
We b
Ġ- =
Ġint rodu
ĠIn st
ĠW ash
ord in
j oin
D atabase
Ġgr ad
Ġus ually
IT E
Prop s
? >Ċ
ĠG o
@ Override
RE F
Ġ ip
ĠA ustral
Ġ ist
View ById
Ġser ious
Ġcustom er
.prot otype
od o
c or
Ġdo or
ĠWITH OUT
Ġpl ant
Ġbeg an
Ġdist ance
() ).
Ġch ance
Ġor d
c ame
pr agma
Ġprot ect
rag ment
ĠN ode
en ing
Ñ ĩ
Ġr oute
ĠS chool
h i
Ġne ighb
A fter
lic it
Ġcon tr
Ġpr imary
A A
.Write Line
util s
Ġb i
R ed
.L inq
. object
Ġlead ers
un ities
Ġg un
on th
ĠDe v
F ILE
Ġcom ments
_l en
ar row
am ount
R ange
s ert
Grid View
Ġup dated
ĠM o
Ġin form
oci ety
al a
A ccess
Ġh ab
Ġc reat
_ arg
ĠJan uary
ĠD ay
") čĊ
up le
d ocument
gor ith
m enu
ĠO ver
b b
.t itle
_ out
Ġle d
ur i
Ġ? ></
g l
Ġb ank
ay ment
ĉ printf
M D
Ġs ample
Ġhand s
ĠV ersion
u ario
Ġoff ers
ity Engine
Ġsh ape
Ġs leep
_p oint
Set tings
Ġa chie
Ġs old
ot a
.b ind
A m
Ġsa fe
St ore
Ġsh ared
Ġpr iv
_V AL
Ġs ens
) {
Ġrem ember
sh ared
e lement
Ġsh oot
V ert
c out
Ġen v
_l abel
Ġ >Ċ
r un
Ġsc ene
( array
de vice
_t itle
ag on
] čĊ
ab y
Ġbe came
bo olean
Ġp ark
ĠC ode
up load
rid ay
ĠSept ember
F e
Ġs en
c ing
F L
C ol
ut s
_p age
in n
Ġim plied
al ing
Ġyour self
.C ount
con f
Ġa ud
_in it
. )
Ġw rote
N G
. Error
ä »
.f or
Ġe qual
ĠRe quest
Ġser ial
Ġallow s
X X
Ġm iddle
ch or
Ã ¸
erv al
.C olumn
read ing
Ġesc ort
ĠAug ust
Ġquick ly
Ġwe ap
ĠC G
rop ri
h o
Ġc op
( struct
ĠB ig
Ġv s
Ġfre qu
. Value
Ġaction s
Ġpro per
Ġin n
Ġobject s
Ġm atrix
av ascript
Ġon es
.g roup
Ġgre en
Ġp aint
ool s
y cl
enc ode
ol t
com ment
. api
D ir
Ġun e
iz ont
.p osition
Ġdes igned
_ val
av i
ir ing
t ab
Ġl ayer
Ġview s
Ġre ve
ra el
ĠO N
r ics
n p
Ġc ore
() );čĊ
M ain
Ġexp ert
ĉĉ čĊ
_ en
Ġ/ >
ut ter
I AL
ail s
ĠK ing
*/ ĊĊ
ĠM et
_ end
add r
or a
Ġ ir
M in
Ġsur pr
Ġre pe
Ġdirect ory
P UT
- S
Ġe lection
h aps
.p re
c m
Val ues
Ġ" Ċ
c olumn
iv il
Log in
in ue
Ġbeaut iful
Ġse cret
(e vent
Ġch at
um s
Ġorig in
Ġeffect s
Ġman agement
ill a
t k
Ġset ting
ĠC our
Ġmass age
ĉ end
Ġhapp y
Ġfin ish
Ġc amera
ĠV er
ĠDem ocr
ĠH er
( Q
con s
it a
Ġ' .
{ }
ĉ C
Ġst uff
Ġ :Ċ
ĠA R
T ask
h idden
er os
IG N
at io
ĠHe alth
ol ute
Ent er
' >
ĠT witter
ĠCount y
s cribe
Ġ= >Ċ
Ġh y
f it
Ġmilit ary
Ġsa le
re quired
n on
boot strap
h old
r im
- old
ĠD own
Ġm ention
cont act
_g roup
od ay
Ġto wn
Ġsol ution
u ate
ell ing
] ->
ot es
ent al
om en
osp ital
ĠS up
_ EN
Ġsl ow
SE SSION
Ġbl ue
ag o
Ġl ives
Ġ ^
. un
in st
en ge
Ġcustom ers
Ġc ast
ud get
ï¼ ģ
ic ens
Ġdeter min
Se lected
_ pl
ue ue
Ġd ark
// ĊĊ
s i
ther n
ĠJ apan
/ w
P U
ĠE ast
ov ie
Ġp ackage
Ġn or
Ġap i
b ot
" ];Ċ
_p ost
ul ate
Ġcl ub
') );Ċ
Ġlo op
PI O
ion e
sh ot
In itial
Ġplay ed
reg ister
rou ght
_m ax
ac ement
m atch
raph ics
A ST
Ġexist ing
Ġcomple x
D A
.C h
.com mon
m o
Ġ' ../../
it o
Ġanal ysis
Ġdel iver
ĠĠĠĠĠĠĠĠĠĠĠĠĠĠĠĠ Ċ
id x
Ã ł
ong o
ĠEng lish
< !--
Ġcomput er
EN SE
Ġp as
Ġr ais
H ash
Ġm obile
Ġo wner
F IG
ĠĠĠĠĠĠĠĠĠĠĠĠĠĠĠĠĠĠĠĠĠĠĠĠĠĠĠĠĠĠĠĠ ĠĠĠĠĠĠĠĠĠĠĠĠĠĠĠĠĠĠĠ
th es
Ġat tr
w d
.t ime
aw n
Ġtreat ment
ĠA c
. View
im pl
m ore
p ass
Ġh a
.f rom
Ġle ading
FF FF
( error
. ui
at ar
ad ers
d ates
Ġz u
Ġfl ow
T arget
Ġinvol ved
Ġi o
par se
$ _
he st
. int
- item
as y
S p
Ġsh ift
N T
Ġt f
_T R
. web
C S
Ġ} )
Ġey es
_ z
' );čĊ
if orn
Ġ{ @
Ġn ice
.l ist
ĠĠĠĠ čĊ
Ġf loor
Ġred irect
ĠU K
( ['
Ġw ish
Ġcap t
leg al
ĠI O
Ġst age
. String
ĠA fr
ig en
ĠS H
De lete
ell s
Ġsol id
Ġmeet ing
Ġwork ed
Ġed itor
in y
Ð ¼
_ read
. Id
e ff
Off set
ch a
US ER
ĉĉ ĠĠĠ
ipp ed
Ġd ict
ĠR un
.h pp
Ġan g
x ml
im ple
Ġmed ical
_t oken
con nect
Ġh our
Ġcont roller
_m essage
U ID
G r
and ed
_C H
Ġbook s
Ġspe ak
am ing
Ġm ount
Rec ord
ĉ struct
.W eb
ond on
Ġ// Ċ
Ġf elt
.A uto
id ge
_p os
P R
Ġmod ern
C ollection
_m sg
C D
ĠL o
Ġsecond s
ib ly
.e quals
Ġintern ational
# pragma
oo th
W riter
i ate
Ġce le
ĠB it
iv o
iv ery
r d
HE CK
Ġc ache
.c ount
Ġro ll
.Re ad
RE D
Ġset up
izont al
model s
arg v
Ġconsider ed
=" ../
set tings
ĠR el
Ġgrow th
Ġm ix
ĠWash ington
Ġpl t
ĠI M
á º
Ġturn ed
ĠDate Time
ĠW ed
( url
Ġ" -
Ġlet ter
As ync
ĠĠĠĠĠĠĠĠĠĠĠĠĠĠĠĠ ĠĠĠĠĠĠĠĠĠĠĠĠ
ĠOct ober
_l ine
Ġatt ention
Ġcol lect
ĠH ash
Ġim ag
T ree
Ġsit uation
et te
_n o
IV E
Ġv on
.t arget
Ġknow ledge
Ġdr ive
.p ost
Ġb lood
Ġc it
pr imary
Ġconfig uration
te e
Ġph oto
is ode
Tr ace
Ġg ave
Ġsh ot
ĠA ir
Ġm other
pr ice
Ġmor ning
)) {Ċ
- x
Ġtr ade
Ġdes c
Ġ&& Ċ
Ġparent s
A pi
å Ī
t ed
w er
Ġ æ
Ġs y
ĠK e
Par ser
å ħ
anc y
Ġpie ce
iforn ia
to String
r an
id ing
PT ION
com es
/ lic
.c lient
E l
L ong
Ġprofession al
ru pt
v a
Ġcomplet ely
Ġpract ice
Ġse lection
R em
in i
Ġc am
RE E
Ġsit es
p a
AT US
Ñģ ÑĤ
arr ant
* (
_ KEY
ĠB utton
ĠF riday
se qu
Ġre ader
Ġm essages
è ¯
Ġbu f
K e
Ġn ov
H P
M sg
al ign
ar ily
Ġ' ,
_w ith
Ġd as
Ġhe ard
at omic
ri al
) [
Ġdis e
@ end
Ġg old
Ġf air
Ġsa les
. Button
str ict
s ave
Ġme asure
Ġ" +
ec ause
View Controller
ĠT able
.p aram
Ġdec ided
(( (
IN FO
Ġopport unity
T e
IC ENSE
cc ording
k i
ĠU N
Ġcont ain
Ġman ager
Ġp ain
ĠF ire
rom e
Ġpl ans
F ound
l ay
ĠDec ember
Ġinfl u
Ã º
ren ch
ĠĠĠĠĠĠĠĠĠĠĠĠĠĠĠĠĠĠĠĠĠĠĠĠĠĠĠĠĠĠĠĠ Ġ
az ing
b rief
c all
wo od
Ġload ed
Ġgr and
/ f
im p
_ U
ST R
âĢ ¢
Ġcred it
.C olor
or ge
QUE ST
Ġdiffer ence
ĠP C
w args
Ġp ub
und ay
Ġf ra
.m ax
Ġtri ed
ann els
s end
Ġreport s
Ġad ult
ä º
Ġcons ist
ĠSt reet
ĠPro gram
S QL
M atrix
ounc il
- A
ĉ w
Ġwho se
Ġrel ig
ĠS ex
Ġg ives
n one
.m essage
( G
.aw t
- right
ĠNov ember
ell ig
ut ive
Ä ĥ
over n
Ġeas ily
Ġide as
ĠÐ ½
/c ss
ly ing
el le
C an
_c olor
Ð¾Ð ²
Ġp air
ng th
Ġs plit
d rop
art y
on a
Ġcap ital
Ġhe ar
Ġex ists
ĉ log
em o
R un
o i
Ġpar ser
ĠM ethod
Ġeduc ation
[ k
Ġlib rary
> ";Ċ
_ UN
ĉ std
od ed
Ġcall s
h ere
R el
Ġbr and
back ground
g a
_add ress
_param s
C ategory
ĠInd ia
_e vent
Ġ ing
R ender
.c l
ump y
Ġp et
F C
ĠA nt
Ex t
Ġchar ge
en ed
gr ad
E O
Ġdep end
Ġ .ĊĊ
fr ame
Ġd f
Ġh uge
ĠP ART
ed s
; ;
ĠA M
Ġbas ic
ĠL et
lic h
Ġar m
Ġst ar
Ġf ederal
W ork
Ġcar ry
ĠIs rael
( obj
={ {
Ġs aved
Ġs yn
Ġconst ant
V ENT
Ġpos itive
Ġcon duct
Ġsk in
Ġear lier
Ġl ayout
ĠI P
O UR
Ġt im
styles heet
_ cl
ĠC ard
++ ){Ċ
Ġtem per
ĠDav id
ĉ try
.d art
Ġwant s
Ġp icture
Ġv ideos
ĠCom m
is ions
_M AX
M apping
- content
ĠE ar
- de
Ġpre m
br uary
Ġcom ponents
Ġthrough out
Ġp ull
Ġp ages
ent e
res pond
Ġg as
cript or
Ġed ge
Ġb ound
A CT
**** **
Ġcre ating
ĠC H
Ġnull ptr
B r
+ '
.c o
> ::
Ġle arning
.L ength
_S H
Ġpat ients
A IN
Ġk ids
Ġcom fort
Ġsh own
ug ins
ĠB ack
ell a
_C L
Ġl at
Ġdis patch
Ġclass es
. at
.b egin
Ġsuccess ful
b an
Ġobt ain
ĠS l
Ġl ack
iter ator
Th read
(s ize
Ġn one
.h as
_ X
s ort
n ap
p et
b in
ĠCan ada
The y
Ġd ans
ĠM at
< td
Ġh air
Ġ' ',Ċ
Ġc u
Ġlaw s
let ed
p ed
Ġp ow
Ġk new
_C OM
_ ,
ĠM ag
id ents
( req
Ġ ),
- center
Ġw ide
ĠA uthor
st ants
Ġjob s
Ġm ath
et imes
Bo olean
Ġs cope
_ is
Ġme as
Ġkey s
el ay
Ġexact ly
'=> '
ĠP aul
m as
ĉ print
(l en
f d
Ġ) ;
. Event
q li
ir it
ield s
om an
ĠT op
Ġv ote
Ġm ask
Ġthem e
- Ċ
Ġpro ps
Ġf ine
Ġwrit er
_ offset
c ar
Ġal tern
Ġc opyright
Ġdest roy
pp er
Ġgener ate
pp ed
âĢĻ d
ĠĠĠĠĠĠ Ċ
m ake
ĠSh ow
Ġb rowser
Ġfavor ite
Ġcare er
Ġhappen ed
( char
Ġrecomm end
Ġl iter
.f ilter
gr ade
ĠÂ £
Ph one
om s
Ġn amed
- label
ip o
ĠO ther
Ġp anel
Ġro ck
S cale
ĉ assert
Ð ´
Ġtr ust
fr ont
Ġdem on
A r
N et
Ġecon omic
foot er
Ġr ace
(n ode
ĠO ption
s plit
Ġphys ical
if est
Ġrem oved
. http
)) ,Ċ
Ġlook ed
' ;
d ing
g est
atur day
/lic enses
Pr ice
Ġd ro
Ġto wards
Ġun s
ĠC L
ĉ static
Ġ rows
Ġdef ine
.re place
Ġf ather
ĠDes ign
ass ign
m ut
De vice
D id
') )Ċ
omet ry
ay load
Ġh istor
ĠP aram
ĠBo olean
Ġn ature
Ġj s
Ġn ation
i h
Ġdis cover
se m
Hand le
ĉ r
ĠTe chn
Ġw all
{ $
@ property
Ġ" ../
Ġex am
.d raw
opp ing
Ġnear ly
Ġco ol
Ġinde pend
RE S
Ġhand ler
ĠMon day
Ġs un
St yles
ous ly
Ġ ĉ
v est
D isplay
( y
atic ally
Ġpred ict
y ing
Ġsom etimes
" ]Ċ
Ġdr ink
Ġb ul
ific ations
. insert
.re g
Ġtest s
Al ignment
Ġal leg
Ġat tribute
ĠN ote
Ġmy self
art s
N ow
Ġinterest ing
li ents
Ġpop ulation
ĠCal ifornia
" I
å ¹
Ġgre ater
ues day
Ġth ous
Ġcost s
Ġla unch
\ Http
k er
b and
ĠPl ay
Ġb and
.sh ape
es ome
art icle
.r f
Ġw er
Ã¡ s
em bers
us r
B A
ic an
et t
valid ate
ult i
Ġimmedi ately
z er
Ġfig ure
o es
ell er
irc le
ĠS ign
.d b
Ġr ank
By tes
Ġproject s
_re c
UL AR
A PI
ĠL ine
P ort
Ġp oll
Ġg iving
id ence
-- Ċ
Ġpl ot
ic ial
Ġw arrant
IT ION
ĠD ouble
Ġbill ion
gorith m
Ġequ ipment
D ATE
Ġ@ "
E E
Ġp le
i ation
Ġhead ers
Ġpro ced
.Component Model
ĠOb ama
Ġp a
ĠB est
im ately
.get String
. \
mp loy
Ġr aw
_b lock
und red
" },Ċ
.Group Layout
Ġb rought
NS String
th row
cre ated
.N ew
_ view
C P
ep s
O p
Ġgr atis
Ġ' "
Ġinter view
"" "Ċ
Ġpart ial
Ġa ria
b ing
A uthor
Bo ok
ĠP at
um an
Us ers
pl us
ĠD irect
ven ue
al pha
UC CESS
ĠC all
Ġ );čĊ
im ated
Ġrem ain
Ġant i
ĠL ondon
Ġsaf ety
PO SE
o les
cont roller
By te
ĠCour t
ĠPh il
ĠAss oci
en a
å Ĳ
_ST R
co in
resh old
Ġb atch
_C lick
entic ation
> ';Ċ
ent y
Ġbegin ning
Ġz ero
ĠCon vert
Ġt err
Ġp aid
Ġincre ased
c atch
-s ize
act ivity
e quals
Ġque ue
Ġ" '
ĠIntern ational
Ġf Ã¼r
urs day
Ġsc ient
all ow
ax is
Ġapp ropri
ed ge
Ġid x
S uccess
ent ifier
: \
x is
Ġmax imum
ark s
Ġb irth
( index
Ġmay be
.p y
file s
Ġlim ited
_ check
lo ok
pl ies
Ġmov ement
'] .
Ġbro ad
ĠB E
ĠUn ityEngine
.c pp
ĠE very
Ad min
Ġf ans
p ared
Ċ ĠĠĠĠĊ
Ġfore ign
Ġp an
Ġt our
ĠOr der
Ġmov ing
Ġa uf
C all
c b
Å Ł
vent ory
ĠS ql
Ġful ly
Click Listener
W ORD
Ġannounc ed
) čĊčĊ
Ġagre ed
ri e
Ġe arn
_l ink
. array
(t ext
Ġmaterial s
, p
ff ff
v g
ĠÂ ©
Ġun less
aj ax
LO G
Ġsex ual
Ġ\ "
- time
Ġco ach
Ġsupport ed
Ġphot os
if orm
.C reate
) ]
ri er
Ġd ialog
av er
ig e
) +
_id x
: [
_m in
ĠC ong
Ġpress ure
Ġteam s
S ign
b egin
ri an
NE SS
L S
Ġimpro ve
ĠS unday
Ġdef inition
ig er
roll ers
Ġthink ing
T emplate
- F
Ġem erg
pl ates
ĠUS A
.set State
ĠAl so
re v
Ġen able
ĠC O
PE CT
Ġcon cept
) -
ĠâĢ ¢
Ġset s
Ġmean ing
em on
ĠCon s
c mp
ed er
ann ed
icens ed
ĠS uper
Ġd aily
Ġmult i
_ u
Ġchall eng
_m ode
ĠP romise
Ġstr ict
j o
int on
( list
On ly
> {
Ġveh icle
í ķ
ĠPl ayer
ĠD el
Ġp ool
. url
nes day
();čĊ čĊ
Ġ" );Ċ
L ocal
. ");Ċ
Ġorgan ization
re nder
ĠApp lication
Ġsum mer
ex pected
N A
Ġr ap
_ obj
Ġsur face
ĠP UR
Ġ}, ĊĊ
Ġvariable s
(m essage
Ġop in
.b ack
Ð° Ð½
Ġwork ers
v m
C o
ught er
Ġm aster
Ġ" ",
Ġst ories
. User
Ġcele br
ines e
B S
ĠCom mand
ash board
Ġo g
k g
. image
.st yle
Ġstep s
ĠB en
( args
ĠP erson
, y
Ġofficial s
| Ċ
Ġsk ills
v c
Ġbuild er
Ġg ar
A ccount
ĠA uth
ç Ķ
'] )Ċ
ĠA T
n n
. Int
SS ERT
Ġeffect ive
LE TE
Ġto ols
AR D
Ġdig ital
D ouble
ĠF ind
R C
Ġin line
/ r
AR AM
AS K
Ġint ent
a ight
_add r
Ġrequest s
.f irst
Ġde bug
Ġsp ent
() ));Ċ
Å Ľ
Ġpr incip
Log ger
clud es
. use
Ġsur v
med ia
ĠFe bruary
ĠM ac
Ġmiss ing
Ġw ife
Ġtalk ing
ĠM ake
Ġc art
Ġloc ated
E nc
- a
ch ron
Ġc ards
Ġgu y
Ġp ers
ĠY es
ate ver
ĠA ng
ol ar
ĠE ven
Ġacc ur
ĠP ower
ĠG old
c lear
Pro cess
Ġrec ords
Ġk illed
.c lear
ĠWARRANT IES
Ġpur pose
pan el
J ECT
ÃŃ a
Ġex erc
W S
/ L
. exports
Ġ__ _
Ġs in
S ervlet
Ġd Ã©
.de lete
ro ke
S l
ug h
ear s
Ġpoint er
Ġh op
all ery
Ġo bs
co very
ĉ char
ĉĉĉĉ ĉĉĉĉĉĉ
ĉ def
oc ity
itch en
ul ations
ĠF IT
Ġ ).
straint s
vent ion
Ġrequ ires
ĠO per
M E
OUN T
al let
Ġn orm
I RE
ex as
Ġprogram s
Ġwe ak
' .$
u ing
ĉ ĠĠĠĠĠĠĠ
Ġm il
Ġf irm
init ely
_VAL UE
ap se
atis f
Ġdem and
_m od
Ġdescri bed
Ġpl aces
V ID
Ġal one
Ġex port
Ġv ec
ĠM ax
Ġactiv ities
ict ures
g ener
Ġm a
Ĥ ¬
Ġexpress ion
C allback
_ content
ĠM ost
Ġtest ing
E C
CH ANT
Ġad just
.Th reading
( ctx
Ġag ree
ig hest
Ġu i
ĠL aw
. Y
> <?
Ġp od
-l g
âĢĿ ĊĊ
Ġdes cribe
ĠEurope an
- sh
ĠPUR POSE
OR Y
Ġcon vers
ĠI lluminate
ĠA v
( ch
? "
ch en
im a
D ocument
Ġoper ations
w in
ĉf unction
. Image
Ġsc en
/ h
ĠS C
Ġexp lo
: %
/** čĊ
N AME
æ Ī
( var
Ġdirect or
ON G
Ġy ield
Ġfe et
ĠS earch
ĠI l
Ġrest aur
du c
Ġint eger
Ġ' ';Ċ
Ġhigh ly
check ed
ĠPART IC
ER CHANT
ï¼ ī
Ġopt im
Q ueue
ĠL I
it ation
Ġtrans port
iss ion
f ill
us ion
ĠĠĠĠĠĠĠĠĠĠĠĠĠĠĠĠ ĠĠĠĠĠĠĠĠĠĠĠĠĠĠ
ĉ bool
- th
u pt
Ġess ential
ant ed
Ġbenef its
ĉ S
' ;čĊ
ik i
Ġgirl s
ic ed
b uffer
] +
Ġso cket
Ġpr ices
ĠF re
Ġs at
Ġw ood
Menu Item
AR G
ĠAd min
OW N
d k
Ġres et
Ġfor ms
ĠÐ ¸
æ ĸ
ĠT uesday
ĠInitial ized
_tr ain
or ary
ateg or
Ġd t
T otal
con struct
il ies
Ġgu ys
Ðµ ÑĢ
Ġin struction
y led
Ġintern et
et adata
ad y
f aces
je ction
ĠJ ack
Ġre ct
[ -
ĠL eg
Ġdev ices
O C
Ġ* čĊ
or ation
ert ain
Ġgu ard
ost ream
Ġen um
.l ayout
Ġ" ;Ċ
vo ke
ĠO k
H ome
( tr
ET H
Ġdel ay
Ġpurch ase
d c
Ġare n
_on ce
ĉĉĉĉ Ċ
r or
d raw
.r un
(m odel
Time out
li k
ĠAr g
. en
Ġf ish
c py
_f e
ERCHANT ABILITY
( X
_ output
? ?
Ġj o
and ard
Ġd oll
error s
_b ase
ĠPARTIC ULAR
Ġle ader
Ġcomp ar
Ġd oub
ĠV is
Stack Trace
- C
ĠSt ud
stit ute
M ore
ĠD escription
W ARE
ad s
ĠÐ º
b ind
= self
em ploy
[ n
. all
- B
& &
al m
Ġcult ure
h ouse
Ġsu ffer
Ġ' %
Ġstr aight
ĠSt ar
ud o
Ġd ed
ĠC OM
Ġconf irm
ĠG ood
.s c
________ ________
D R
Config uration
Date Time
Ġad vert
Ġcould n
as ync
st ack
') čĊ
K it
Ġh ous
Ġme chan
r ate
Ġa udio
ĉc out
co res
Ġsp ot
Ġincre asing
Ġ ##
)) )
point s
Ġcomp ared
l ig
Ġbeh avior
ĠB Y
ĠAt t
c raft
head ers
et e
end region
Ġd etail
U LE
ĠCom mon
ĉ protected
st on
ĠFIT NESS
Ġf resh
"> ĊĊ
.ex ample
ber g
Ġmov ed
ĉ e
ĠS aturday
Ġpay load
Ä ĩ
) :ĊĊ
Ġbe y
ur er
< script
Ġs ymbol
Ġass um
Ġp ul
E ffect
Ġh undred
To ol
ak ed
con nection
Ġvo ice
Ġp d
Ġtrans action
Ġlink s
E rr
ĠInd ian
T C
atal og
n i
s ign
<< "
j i
y a
Ġdemon str
ul ated
. St
Ġinst it
Ġbo ost
Ġcell s
ol ic
.P ro
: </
Event Listener
ify ing
ĠD i
or row
.ex ecute
Ġcol lege
Y our
Ġlarg est
.d is
Ġqu i
Ġindividual s
_b uffer
Ġn g
S A
ĠCont rol
Ġs ing
Ġsu it
ĠĠĠĠ ĉ
S G
Ġj ump
Ġsm art
om a
ĠEx p
Ġ' -
Ġass ist
Ġsuccess fully
s ys
ĠC re
_ ref
ĠTh ursday
Ġb ur
ĠÐ ´
Ġbey ond
Ġn odes
D etails
in ct
ĠJ ames
Ġa ffect
ex ception
Ġtype of
( čĊ
- se
Ġf etch
` ,
Ġcrush er
} .
ĠB O
Sh ow
Ġr ates
Ġb on
- icon
ĠMed ia
RE SS
ĠVal id
Ð¾Ð »
Ġf uck
ack s
Ġstud ies
M e
Ġown ers
} else
Ġgrow ing
Var iable
ĠB el
.r andom
v ement
on ym
( F
ĠF ALSE
Ġtor ch
( row
ig o
struct ure
Ġcertain ly
D ep
ĠG reen
quest ion
Ġadd ing
ĠDe velop
_ def
Ġm ach
= %
ĉĉ Ġ
cond s
Pro ject
Ġre ject
Ġ Î
Ġpo or
Ġaw are
ĠB uild
ĠBrit ish
ĠN E
Ġnum er
re es
cl aim
Ġm ock
Ġo m
Ġs cre
OL D
. pl
el er
Ġcor respond
_ HE
Ġb inary
_ order
ĠS QL
Ġadv ant
Ġpre v
. [
.assert Equal
pl ier
ar p
Ġclos ed
Ġenc our
ĠQ String
a ud
Ġdevelop ed
Ġper mission
.de bug
oper ator
Ġ' Ċ
Ġs ym
at ively
Ã© e
-c olor
ĠG ET
k y
Ġal though
_re quest
_e lement
........ ........
_D ATA
Ġam azing
Ġs b
ĠDef ault
Event s
Ġfail ure
ac le
Prop erties
Ġd ream
Ġdist r
Ġa u
Ġgener ated
æ ķ
ĠTe am
U SE
Ġin come
Ġey e
_n ot
" ],
_ form
S upport
ord ers
.P rint
v ille
ĠWed nesday
ol ver
Ġopp os
is ation
ol a
C lose
< p
_w idth
In valid
x b
Ġstr ugg
_ action
Ġt xt
ĠP ath
al ar
ĠM ERCHANTABILITY
s ervice
ĠMich ael
able View
De bug
ok es
S he
Ġgu ess
ĠJ ava
_P ATH
Ġparticular ly
ĠI I
Ġd omain
å¹ ´
Ġredu ce
- left
re al
Ġappe ars
Ġcom o
ĠUn it
ĠG overn
al i
alle l
ĠJ ew
_ I
Ġc os
.c olor
ĠG lobal
Ġte le
b en
_ trans
Ġreason s
Ġem b
ens ity
l ines
om in
S creen
Ð° ÑĤ
pect s
cl ip
fo o
re nt
Ġa f
Ġd anger
il ing
N ames
O ur
Ġdistrib ution
Wh ile
S L
W rite
Ġg oto
Ġcolor s
Ġpower ful
k in
Ġdep th
erc ial
ĠCong ress
ĠMark et
D b
u nder
ĠL ast
Ã Ł
g reg
Ġpost s
_ URL
ot os
D on
Ġm icro
Ġar rest
Ð ¿
Ġ( @
ĠH ot
ĠInd ex
; &
# !
ĠN or
ĠC ap
- (
Ġinterest ed
pe ar
Ġre nt
Ġal bum
ol icy
.l ang
. trans
. format
Ġ{ čĊčĊ
ph ere
Ġax is
ĠB usiness
ersist ence
ur r
Ġmin imum
end or
ĠS D
ĠIntern et
å ¤
Ex p
iver se
M M
Ġob vious
Ġbas is
Ġsc ience
Ġb udget
iz ations
P A
Ġfl ags
pre t
LO CK
Ġvari ety
Ġtr uth
d t
Ġg one
Ġb attle
< std
ĠS il
r f
ud a
Ġer ot
ĠC am
Ġst ation
Ġ' </
chem e
ĠS un
Ġfin ished
Ġsh op
ĠK ore
Ġe ight
_RE G
N D
> ,
"> <?
(n um
ĉ inline
Trans action
. On
Ġm ail
re y
result s
Ġn av
IM IT
_id s
M ake
å Ĭ
Mod al
ĠLO G
ĠS ur
Ġinstance of
Ġover all
ĠIn formation
Ġcon struction
_F ILE
b ut
Ġmed ic
Ġd uration
it ness
ag ent
A V
Ġse ven
ol f
Ġ} }Ċ
" ],Ċ
Ġcall ing
Ġan s
th rows
or izontal
Ġuse State
.f l
ĠSt atus
ĠOn line
R R
ĠR ich
ĠH ill
Ġbr ain
Ġfollow ed
em ic
Ġsl ight
Ġins urance
.A rray
Ġab stract
ĠS um
red irect
own er
( msg
ĠCl inton
N on
ĉ ex
Ġv olume
ĠEvent Args
- L
ĠD im
ĠM art
Ġc ursor
Ġimplement ation
urre d
Ġlarg er
);ĊĊ Ċ
' +
. transform
Ġup load
ĠĠĠĠĠĠĠĠĠĠĠĠĠĠĠĠĠĠĠĠĠĠĠĠĠĠĠĠĠĠĠĠ ĠĠĠĠĠĠĠĠĠĠĠĠĠĠĠĠĠĠĠĠĠĠĠ
D raw
n el
ĉf loat
q rt
ĠN etwork
Ġt it
A xis
. android
Ġcomplet ed
Ġm ur
Ġcolumn s
x c
Ġsup ply
im inal
Ġs pr
================================ ================================
Ġun its
( u
m i
re place
[ key
à ¹
ant ic
Ġpay ment
, B
ĠApp le
g in
Re quired
# +
land s
Ġs qu
Ġfact or
de c
Ġstre ngth
Ġbo y
Ġb alance
Ġs ources
s creen
-t op
ĠAm azon
Ġh idden
Ðµ ÑĤ
_ client
Ġe at
.d isplay
ĠÂ »
Ġtr igger
an ager
Ġt ro
Ġclaim s
f ord
ĠCom pany
Ġg ift
, :
_ app
h andle
Ġprodu ce
/ lib
Ġ- *
ĉ set
'] ;
ar c
and er
ĠEng ine
Ġat tributes
t ask
< =
( N
Ġw arm
wh ich
ĠF ore
agn ost
m ys
Ġt al
ĠS al
g i
ĠP rint
ĠTR UE
ĠÐ ¾
. UI
Ġfl ash
rop erty
. location
ĠM ill
b i
con tr
.re quest
ĠS am
Ġneg ative
k it
Ġset t
.print StackTrace
ab e
ĉ i
Ġb urn
Ġs ociety
C ache
ĠSec urity
.model s
ĠWARRANT Y
_ up
ce ive
Ġc lients
.T r
Ġprovid ing
Ġr out
m aterial
Ġ|| Ċ
ĠS er
ĠOff ice
FT WARE
Ġ' $
Ġf oc
Ġexc ell
Ġc at
n ormal
Ġdeter mine
ĉ uint
P ane
Ġemploy ees
ĠT exas
Ġtr aff
ĠRe port
ant a
ĠBo x
Ġd jango
Ġpart ner
E B
L INE
Ġfeel ing
Ġc ivil
(f loat
S ql
Ġwould n
.in it
. left
- v
_ level
' }
A F
Ġlo ading
ĠOn ly
Ġcook ies
ĠG l
C O
Ġstrateg y
(' ./
Ġsh ip
pos es
Ġsign al
Ġal pha
.p op
R adius
Ġre place
_D IR
count er
bserv able
el a
We ight
h ash
bo se
f x
ĠE mail
Ġre fer
local host
_ RO
iqu es
St ep
Ġa head
( View
ĠS ervices
ĠJ son
ess or
Ġp un
Ġappropri ate
ak ers
os en
pos ing
Ġag ent
f c
Ġtrans fer
Ġin valid
ĠRes earch
Vert ex
Ġg ay
Ġj ournal
[ x
Ġ" ",Ċ
ĠW ell
.T asks
S pec
Ġo l
Ġsp end
ĠAustral ia
M atch
.j unit
ĠĠĠĠĠĠĠĠĠĠĠĠĠĠĠĠĠĠĠĠĠĠĠĠĠĠĠĠĠĠĠĠ ĠĠĠĠĠ
ĠM AX
iz able
clus ive
_ valid
Ġqu arter
y an
ĠEd it
ard en
= new
Ġfr ag
B it
z i
ain e
u dd
. Object
de bug
Ġc ash
_ IM
Ġe en
Ġcomm ercial
ĠV ideo
lo ader
Ġf ixed
Ġapplic ations
Ġ_ ,
ĠRuss ia
it ect
_ (
ĠB lock
Ġs an
ĠT om
Ġper haps
Ġs ig
lev ant
Ġcor por
at aset
ron ic
x e
Ġ eth
S ome
p op
_O K
Ġt end
. Res
_ and
Ġreview s
Ġw ild
Ġdeg ree
. O
.object s
_ args
n il
Ġdis abled
P arent
Ġnot es
Ġ" "Ċ
( state
istr ict
Ġlog ging
.I O
ĠM al
D M
Ġx ml
ĠRob ert
el en
l ayout
f ol
'] ))
, b
ĠJ er
f ilename
Ġf an
ĠC ustom
=" "
ĠD ie
B undle
.util s
Ġtri p
M B
Ġso ft
_M ODE
Ġapplic able
Ġup per
ER VER
_ al
_LO G
H ere
w p
ĠS erver
ĠC lient
Ġch em
Sc roll
Ġh ighest
ĠSe lect
Ġ" @
ĠWh y
S ec
he el
Oper ation
Ġconn ected
ir med
Ġcit iz
ĠC he
Ġfor ces
Ġw ww
R oot
AN CE
Man y
ic ip
rg an
ĠT or
ĠP ress
ĠM or
- line
u led
> \
Ġth us
ĠReg ister
h ol
ĠCh inese
Ġpost ed
Ġm agn
ab ilities
Ġdise ase
Ġrem ains
ĠPro f
- form
Ġc in
org an
ic ate
Ġst ress
] *
Ġ ----------------------------------------------------------------
_ context
or ry
Ġd ied
m at
Ġstart s
.M essage
Ġrun s
Ġgu ide
Ġwarrant y
ential s
d ict
ĠS ize
ul er
Ġrespons ible
_SE T
Ġcont aining
ĠPr ice
| |
F S
Ġem p
_b utton
( uint
Ġsu ff
p th
Ġdef initely
put e
Ġmarket ing
ĠW H
ĠS ie
+ =
OL OR
Ġcons ult
Ġs igned
Ġse quence
le e
Ġrequire ments
h y
Ex press
M T
se y
Ġ ult
å ®
ellig ence
Ġanal y
Ġd ress
eng ine
ĠG reat
ĠAnd roid
ĠA lex
m ode
D ictionary
.D ate
ä ½
V ICE
Ġfam ilies
ĠRuss ian
ĠT imes
.c all
$ (
Pro file
Ġf older
ch es
Ġleg is
_ row
un es
Ù Ħ
Ġ} ).
Ass ert
ag en
ĠH and
I ter
Ġbig gest
ore ach
Ġpol ic
Ġper missions
Ġshow ed
ĠE lement
Ġtop ic
âĢĶ âĢĶ
ro ad
ĠB ank
rec ord
Ġpart ners
ĠR ef
ess ions
Ġass ess
U ST
ĠPart y
pro du
L C
Ġ ul
. form
h ide
c opy
UT F
ĠSO FTWARE
čĊčĊ čĊ
ĠL in
un a
ug ar
Ġadmin istration
Ġopen ing
Ġsc an
Ġcontin ued
com ponent
.s p
Ġhapp ens
um my
ĠP R
.F ile
ĠDown load
Lo ading
d i
Ġwait ing
_A DD
T ab
.query Selector
Ġecon omy
ĠF rench
t xt
Ġf ant
_ ;Ċ
H older
S H
Ġn umpy
Ġst reet
Ġm ale
\ Model
ang ing
ĠB ill
Ġprevious ly
B I
ĠSec ret
Ġm ist
ĠF ield
up s
ĠPro cess
Ġke pt
ĠO T
Ġtrad itional
. i
am in
Ġhelp s
An y
orig in
ilt ers
j u
d esc
ĠA ccount
Ġ) čĊ
k top
ol ly
Ġf s
Ġ ê
Ġ ut
Ġcent ral
(t est
.A n
Ġs atisf
G R
ĠF ull
Ġhe at
ib er
Ġon to
m os
S chema
Ġfact ory
" .$
aw s
St atement
(t arget
ĉ new
.b e
Ġg uest
Ġm al
AR Y
Ġre ached
Ġm ouse
Ġchall enge
ĉd ouble
ĠT em
Ġt error
Ġex tract
_T O
Ġsepar ate
Ġm ir
h elp
Ġcap acity
ĠProp erty
k an
_c reate
ĠL ight
.p arent
Ġunderstand ing
Ġeas ier
Ġ| =
Ġen h
Ġf at
Ġprot est
am m
_ AT
- of
il s
ĠO h
Ġps ych
Ġ$ .
ind s
Ġrel ative
sh op
sh ort
ĠS and
uest ion
Ġf ear
/ ĊĊ
. context
Ġschool s
Ġser ve
z one
_d b
Ġmajor ity
ex ample
Ġl ang
ĉ ĠĠ
Reg ister
end o
Ġprocess ing
_t emplate
- user
Ġe g
C OM
ĠBl ue
i ro
Ġrem ote
ĠI T
#! /
Ġred istrib
ra z
ĠS ince
ĠT ur
Back ground
== =
Ġref lect
Ġpro s
c md
Ġwh om
Com pat
ĠA re
Id entifier
ĠTh om
_ port
g u
Ġmon itor
r m
Ġpat ient
ver ter
Ġg ain
- ui
In st
Ġd ies
A rea
_f ilter
Ġgr at
Ġreal ity
ord inate
ol ved
Cont act
Ġcompl iance
_ or
ĠV ar
d l
Ġapp end
G ER
(m ax
.re nder
Ġd ynamic
ordin ates
_ options
_c olumn
Ġb atter
s pace
L a
ĠS ource
/b in
Ġd os
ĠBo ard
ĠTh read
ĠA L
( config
ĠM er
Ġm iles
_ header
ETH OD
iz z
Ġbenef it
Ġinteg r
(c urrent
ul o
. default
ĠD iv
Ġt on
o th
erv ation
ed om
Ġb aby
ce ived
.t op
rior ity
ĠL ocal
ri age
Ġattack s
Ġh ospital
Ġfem ale
ĠLog in
ĠFl or
Ġch ain
ash ion
Text ure
S ave
Ġf arm
.cont ains
.T est
Ġknow s
Ġgener ally
ip eline
Ġme ant
enc ia
Ġn icht
Ġcont ents
P M
ched ule
( line
C G
j ob
ĠRe al
u er
f irm
Ġ Ø
et ro
" `Ċ
Ġspe ech
Ġth r
fore ach
Ġw arn
ĉ l
Ġhe avy
< li
N e
Ġinvestig ation
M ath
- title
Ġch urch
Ġdes pite
ch ain
Ġwh atever
ar ian
f n
Ġm eta
} )ĊĊ
U FF
Ġregard ing
_S UCCESS
m es
ĠInt ent
Ġres olve
pos s
ir a
for ce
o ice
Ã ¢
Ġp m
Ġup dates
A rr
Ġ Ñ
test ing
Ġto ward
nt ax
ë ĭ
Ġlist en
Ġgo als
Instance State
D r
Ġr are
Ġtr ail
Ke ys
C al
C ar
ĠPe ople
ĉ local
class es
Re ference
.for Each
em b
act iv
Ġpr im
red ict
Ġr ad
æķ °
.B ack
Ġsp read
Ġc lock
Ġv ir
ed itor
Ġeffort s
Ġbr anch
Ġind ust
Ġmot or
Ġam b
Ġdat etime
Ġren cont
ĠChrist ian
ĠAmeric ans
f ull
Ġf mt
.m ain
Ġca used
_ update
ĠCont ent
AT CH
Ġb ath
ĠE ach
Ġr adio
ach ment
uz z
Sub mit
Ġre strict
ab in
ĠL oad
Ġext ension
Ġess ay
Ġh at
avi our
to Be
": [
Ġoffer ed
Ġv ill
(d ouble
æĹ ¥
b c
_f ree
ĠM iss
ĠB er
Ġ è
ĠL ike
Ġhelp ed
.get Name
_ AL
Ġsp irit
ĠAp ache
w s
Ġthere fore
( params
_ img
Ġpe ace
Ġinc or
ĠEX PECT
Ġmin or
ip es
ĉ data
select or
c ity
tr ie
.b ase
_f rame
Ġopen ed
/ json
L Y
n u
.D e
t f
m argin
.P arse
Ġp i
Ġe q
b d
Field s
ĠT ree
Ġb an
ist an
Ċ ĠĠĠĠĠĠĠĠĊ
ĉg l
Ġprodu ced
s ystem
M ark
_h ash
Ġb g
Ġconst it
ĠLe ague
Ġmiss ion
_ format
([ Ċ
clus ion
! "
Ð ·
b reak
ĉs witch
Ġth er
Trans form
Ġfoot ball
- link
r oute
. auth
Ġb ag
ov ers
Ġen abled
Ġr ac
( I
C R
anc ing
Ġman aged
_ q
NG TH
Ġm ac
ĠA uto
ament e
Ġ' ',
.App end
Ġp in
. item
ack ing
Ġocc as
p erson
Ġt i
.Re g
Ġh aven
Ġg lass
Ġ" </
ĠSim ple
P rint
Ġsur round
N O
ãĢĤ Ċ
ĠĠĠĠĠĠĠĠ čĊ
ĠMan y
Ġ" _
Ġweek end
Ġsom ew
.param s
sm all
AT ED
Ġpl ugin
field s
ĠInitial ize
o on
at ile
y e
Ġv ous
L AG
Ġold er
Ġg am
Ġextrem ely
Ġh et
en um
ĠS ET
x ff
Ġt imer
/ index
Ġcrit ical
Row s
_arg ument
Ġex ecute
Ġshow ing
.x ml
- list
R ole
typ ename
_m ethod
th at
ch er
Ġâ Ĩ
X T
Ġthous ands
ĉ n
Ġres p
_pr ice
ol ut
A g
ĠT wo
Ġbe comes
Ġh us
.U se
th eme
ur b
Ġ/* Ċ
erial ize
AR N
Ġlo se
L ower
Ġv el
Ġdef ense
cond ition
Ġb es
Ġd ry
Ġsc roll
.S how
I EL
Ð¾ ÑĢ
ĠR est
Wh ere
ood s
ĠJ es
Ġw ire
_IN FO
Ġstr ings
g ment
Ġmatch es
Ġelect ric
Ġexcell ent
ĠC ouncil
id ade
Ġw x
p ush
_ entry
Ġtask s
Ġr ich
s a
ĠSm ith
UN CTION
Point er
pect ive
Ġw idget
ist a
Ġag ency
Ġs ich
olog ies
Ġtri al
al ysis
. check
AR K
Ġon Change
ab out
', $
( val
Ġpl aced
_N O
Ġd an
.e qual
ĉ ĠĠĠĠĠ
Ġwe ather
.g ame
Ġdest ination
_ USER
ie ce
Ġprovid er
.l ast
ple x
N ote
/ js
Ġp Ã¥
Ġpl anning
at tribute
P RO
atch es
Ġ< -
Ġsee ing
Ġcan cel
_ ind
.key s
Ġvis ual
ĠC urrent
ĠCol lege
ĠR ock
Ġagre ement
ĠSt ore
ov ing
Ġcor ner
amp ions
I SE
F in
Ġprote ction
Ġf i
Pl ay
pl ugin
) }
.f rame
- z
Ġtrans ition
ig in
Ġcandid ate
ĠUn ion
_ values
(m ap
c le
Ġtre nd
w ide
are n
L oc
UT H
ĠB ay
Ġsmall er
i us
w ell
Ġcr iminal
Ġconf lic
b ert
_IN T
Ġinvest ment
c ustom
ĠS ession
_w rite
an ia
ĠM ass
_E Q
_N OT
Ġviol ence
Arg ument
_ email
Ġbel ong
_f unction
Ġen emy
em a
ĠAdd ress
. empty
Ġin ner
ĠCont act
Lo ader
< input
ĠC A
l ot
Ġp ictures
ĠS upport
_n ames
L ayer
ĠC lick
S um
Ã ¦
ĠL ook
u ous
L ib
Fl ags
te am
E P
h at
over ride
aps ed
Ġlabel s
qu is
ĠSt ream
_de vice
ĠCom mit
( root
" }
.is Empty
ĉ M
Ġan gle
ĠB ecause
%%%% %%%%
Ġa im
Ġst ick
st mt
ag raph
ans wer
Ġcl in
ĠIs l
. ext
ĠIN T
Ġst yles
Ġb orn
Ġsc r
Ġexp and
Ġrais ed
Text Box
IL L
-------------------------------- ----------------
HT TP
> )
_ char
res ource
Ġep isode
Ġ' _
ĠE s
ĠEar th
Âł Âł
UP DATE
ĠS ou
u is
t ypes
Ġm as
Ġf av
Ġcon struct
_r ate
er as
Ġ| Ċ
rop erties
Ġext ernal
Ġap plied
Ġpre fix
ot ed
l ers
Ġc old
ĠS P
ĠCh urch
ĠOut put
los ed
ç ļ
ific ate
oper ation
her it
x FF
. env
_ err
os h
D irection
C ancel
ĠFr ank
Ġfind ing
. )ĊĊ
Ġr outer
ãĥ »
s es
Ġc row
== '
Ġs and
Ġr id
it ure
Ġent re
Ġo bserv
Ġv ac
ð Ł
- T
A rt
n ight
. search
Ġex change
Ġdistr ict
. os
Ġdep artment
Ġdoc uments
Ġcent ury
ĠN ext
H ost
ĠK IND
Ġsus p
- P
re nd
. em
u ite
ist ers
( json
ĠAn n
w t
at i
ĠHT ML
wh en
D irectory
Ġsh ut
< a
ed y
Ġhealth y
Ġtemper ature
ĠG en
Ġmet al
Ġsub mit
ĠD O
Ġat tract
Ġ{ };Ċ
ĠW ord
Ġl l
Ġseem ed
k o
I ED
Ġl abor
.Cont ext
Ġas set
y ou
Ġc ars
ĠC olumn
Ġr Ã©
Ġs quare
ĠNS String
âĢĿ ,
ap es
.. .Ċ
Ġthan ks
( props
Ġt ick
Ġexper iment
Ġpr ison
t ree
- text
ĠIO Exception
-w idth
_ST ATUS
f ast
-b ody
- header
Ġgu ar
cre te
ĠT im
Ġclear ly
ĠRepublic an
Ġjust ify
Ð¸ ÑĤ
ĉ ĠĠĠĠ
c ache
; //
Ġpres ence
Ġfact ors
Ġemploy ee
] ))
M ember
Ġselect or
b or
ĠM ex
çļ Ħ
ut ex
_t ag
ail ure
ĠN et
Ġre li
E G
Ġf printf
Ġte en
lo ss
Ġle aving
De legate
Ġbe at
Ġmin ute
sub scribe
Ġredistrib ute
Con stants
Ġcan cer
/ {
B L
Ġs pan
ĠCh ild
C enter
Ġear th
Y S
ĠLe vel
Ġse a
.s upport
.in ner
. Item
ill ing
ĠĠĠĠĊ ĠĠĠĠĊ
ĠL abel
ĠE st
( arg
bo Box
ĉf oreach
c os
F ailed
sw ers
Ed itor
r ont
ĠM P
ex pr
ĠL ife
Ġ? ?
Ã¶ r
Ġatt end
ĠQ ue
Ġspec ies
- D
Ġa us
Str uct
Ġadvant age
ost on
-b lock
in itial
C RE
Ġtr uly
Ġcomp are
or ney
Ġs pect
F ull
b es
Ġvis ible
Ġm ess
st ances
Ġcl oud
_v ersion
Ġf urn
ic ago
LO W
Ġtraff ic
Ġf ol
rypt o
Ġdecl ar
Ġsl ot
ĠEx t
ĠEng land
ĠU nder
Ġt a
let ter
Ġoffic er
ĠDon ald
Y es
_ json
IT ableView
ĠU SE
mploy ee
Ġopin ion
ĠA ut
b order
Ġad vice
Ġautom atically
is co
Ġm m
. vis
am l
Ġinitial ize
Ġ( {
Ġ ;ĊĊ
Ġgener ation
Ġb its
clip se
Ġun f
ut ors
pl t
Ġdel ta
est roy
is is
< br
Ġlimit ations
Ġend ed
ĠM ad
il m
Th ese
ĠMin ister
Ġch art
F ragment
Ġindepend ent
Y ear
Ġin str
Ġt ags
A VE
ĠAr ch
st op
Pro gress
Ġm i
Ġlearn ed
G e
Ġhot el
S M
T YPE
Ġc y
ERS ION
un ately
l imit
s el
Ġmov ies
Ġste el
o z
g b
ĠC amp
s ite
ĠLog ger
P LE
Ð¾Ð ´
. right
ĠC ore
Ġm ixed
st ep
Ġput s
s uper
R outer
. Http
ly ph
ĠColor s
Ġandroid x
. str
Ġinn ov
Ġde ck
' >Ċ
ap ers
] (
cont inue
s pec
ĠR oad
AS H
ili ar
Ġcontin ues
Ġapp oint
Ġ# Ċ
ĠV ir
Ġ?> "
Ġb in
} ",
go ing
e ach
B D
ĠA ccess
D oc
ĠMan agement
B ER
ask et
.get Instance
Ġestablish ed
so cket
IN S
ĉv irtual
ĉ result
RE AD
_ height
ĠF ont
Ġ( );Ċ
_ html
Ġneighb or
l or
Ġg ather
Ġ} )ĊĊ
Ġid entity
Ġf ab
p adding
ĠR oute
Enumer able
Ã ´
Ġfor ced
/j query
.ĊĊ ĊĊĊĊ
res ents
_ left
.P aram
ĉ throw
ĠH am
Ġevent ually
ac er
p ub
Ġtr a
un ique
d el
ĠFlor ida
ĠC lean
x a
ĠÂ ·
Ġvalid ate
Vis ual
Ex pression
_f unc
m ember
ĉ h
tr l
ĉ G
nap shot
ĠProp Types
v in
] )ĊĊ
ow l
if ies
Ġ$ ('.
ĠCont ext
ĠTo ast
. Key
Ġoffic ers
/ n
s n
und efined
. items
ut ow
am age
Ġaccount s
ook ie
Se ction
ici ans
Ġad vis
( is
[: ,
ĠFr ance
F unc
ic ious
Ġto k
Ch annel
ĠA D
_N UM
Ġtime out
lem ma
rem e
u j
.A l
uc lear
( os
(" <
[ Ċ
f etch
Ġb al
Ġgu id
- align
ĠW rite
ĠOn ce
utow ired
OD ULE
Ġp itch
C F
by tes
ĠCom mission
Ġincre d
P ER
_ response
ĠL os
par ser
Ġass ume
. Request
ĠT oken
_p osition
Ġn om
- term
Ġrem aining
i ostream
Ġpie ces
ap y
ĠL ess
r ange
umb n
pr ise
_ option
Im pl
k wargs
Ġbusiness es
Al ert
Ġpart ies
ĠCont ainer
ĠPr ivate
ĠPl an
Ġregister ed
Ġj our
ack er
ÐµÐ½ Ð¸
/ >
ch at
se ct
Ġcre ation
olut ely
Ġinst ant
Ġdel ivery
ick en
y es
ĠFr anc
bl ing
end a
[ (
_r ange
ĠĠĠĠĠĠĠĠĠĠĠĠĠĠĠĠĠĠĠĠĠĠĠĠĠĠĠĠĠĠĠĠ ĠĠ
Ġsched ule
Con n
Ġthan k
x d
Ġh ook
Ġdocument ation
Param eters
H ello
v t
Ġart icles
Ġw est
def ined
. select
ok ens
ĠV AL
.f ile
res et
Ġmy s
ĠM A
] ),
Ġc ities
rel ated
å Ľ
Ġappe ared
Ġw id
.p anel
ĠIn s
. entity
Ġde cre
ĠL ou
(t ime
ĠTh ank
.create Element
Ġmention ed
oun ce
ĠT ry
ĠW all
/ images
ĠM enu
' čĊ
ĠE r
Ġcrit ic
ĠY ear
( param
Ġf lo
N N
oot er
Ġ ];Ċ
ĠA ff
" github
room s
Ġh yp
g lobal
Ġa vec
æľ Ī
Ġcomplet ion
Ġcon d
onym ous
( temp
Ġst ars
Ġre levant
Ġcover ed
Ġel im
_t ypes
( bool
Ġt u
_ex ists
Ġsec ure
Ġst ored
] /
x F
ĠCont roller
Ġm igr
M I
ĠD en
Ġann ual
U IL
- and
Ġcr ime
b el
Ġk itchen
@ g
_p h
ourn ament
ĠS ocial
ĠS pecial
log ger
Ġt ail
Ġun known
d ed
Ġapp rec
(d b
c f
Ġass ign
- out
ĠM ont
d p
w idget
Ġst one
- primary
. grid
Result s
az z
Ġda ughter
Ġcur r
Ġl in
Ġs outh
form s
ĠO UT
let te
ak s
ig ure
ĠE U
var iable
Ġb rief
ĠSc ott
Ġcon ference
and a
_ lock
or al
Ġe ine
OR S
//////////////////////////////// ////////////////////////////////
ess o
Ġr is
Ġg ender
est ic
L icense
( out
Ġm s
Se e
Ġwill ing
az e
Ġs ports
Ġy es
l u
Ġp urs
/j avascript
- pro
nav bar
_pro duct
/ bootstrap
Ġdr iving
Ġ Ä
Ġpro pos
ult ip
up lic
. email
Ġappro x
( cl
Ġwe ar
Ġrep ly
ass et
Ġ ice
Ġt x
k r
ĠGerman y
ĠGe orge
Ġc b
ĉ err
M ove
Ġpol y
vo ice
} "
Ġan imal
A v
ĠL ocation
Ġn ative
] ["
< double
Ġm ais
, int
Ġpre par
Ġinter val
plement ation
_ ERR
Ġb ug
> "
st at
Ġ} ,čĊ
< span
Ġfa ith
Ġ rom
pre v
ĠE lect
F ind
Ġg od
ot or
// ----------------------------------------------------------------
orig inal
C pp
ĠSen ate
Ġposition s
Ġweap ons
Ġco ff
Ġpur poses
p ol
Ġim press
Ġanim als
. Entity
(n p
Ġmur der
Ġ` `
fl ag
Ġsol utions
ĠAct ive
Ġb right
.d ate
Ġsit u
ï¼ Ī
. ID
Ġs ie
), čĊ
ak t
S pace
.d at
.index Of
h an
az ine
ĠZ e
Ġcr ash
( /
> =
Ð ±
iv a
.Auto Size
ĠL at
_ ext
Initial ize
.reg ister
OP Y
Ġre verse
_d is
'] [
Ġprom pt
ont o
ĠJ ournal
r outer
Ġmys qli
# else
) "
-x s
let s
ph an
. LE
W ill
Ġaff ord
Ġsk ill
-t oggle
N C
B ind
T S
J ust
iter al
Y P
ĉ unsigned
Ġw ind
)) :Ċ
Ġw arning
ĠW ater
Ġd raft
Ġc m
Ġs am
Ġhold ing
z ip
ĠSc ience
Ġsup posed
G en
Ġdi et
< h
ĠP ass
v i
Ġhus band
ï¿½ ï¿½
n ote
ĠAb out
ĠIn stitute
Ġcl imate
.Form at
Ġn ut
est ed
Ġapp arent
Ġhold s
f i
new s
C M
v ideo
': '
D ITION
p ing
Ġsen ior
w a
-- >Ċ
_ default
ĠD atabase
re p
E SS
ner gy
.F ind
_m ask
Ġr ise
Ġk ernel
:: $
. Q
Ġoffer ing
de cl
ĠC S
Ġlist ed
Ġmost ly
eng er
Ġblock s
ol o
Ġgover ning
\ F
Ġcon cent
.get Text
Ġm b
Ġocc urred
Ġchang ing
Sc ene
_C ODE
B eh
" The
Ġt ile
ĠAssoci ation
ĉ P
al ty
_ ad
od ies
i ated
Ġpre pared
poss ible
Ġm ort
TE ST
Ġign ore
Ġcal c
Ġr s
Ġassert Equals
Ġs z
ĠTH IS
. "Ċ
Ġcan vas
j ava
Ġd ut
VAL ID
.s ql
. input
Ġa ux
S up
Ġart ist
V ec
_T IME
.string ify
et ween
ĠC ategory
Ġ[ -
ĠDev Express
ĠJ ul
Ġr ing
. ed
Y Y
L et
Text Field
Ġfl at
_p rint
ĠOT HER
ad ian
Ġcheck ed
e le
Al ign
stand ing
Ġ[ ],
Ġl ab
uck y
ĠChrist mas
( image
.m odule
Ġl ots
Ġslight ly
(f inal
er ge
è ¿
ĠPol ice
ĠR ight
Ġaw ard
ĠO S
Ġ{ }ĊĊ
Ġp tr
ov es
ic ated
ÐµÐ ¼
Ġman age
olid ay
Am ount
ool Strip
t body
N av
w rap
B B
Ġwatch ing
ari os
Ġoption al
_ K
ĠL icensed
.M ap
T imer
ĠA P
ĠRe v
( o
, c
um in
eta iled
ĠH y
Ġbl ank
ag ger
ĠS elf
() [
.m ake
ear n
ch annel
< pre
ble m
_p assword
_s p
ic ing
e z
Ġthe ory
ĠT er
, n
log o
ĠHT TP
() ))
.h andle
> ;Ċ
W orld
Ġpy thon
Ġl if
Ġtr av
Ġcon ven
com pany
ĠCl ub
V er
B tn
Ġz one
product s
ĠE duc
Ġver ify
ĠM il
on o
] );ĊĊ
EN CE
Ġpack et
Ġc er
Ġen umer
Ġpar s
form ed
Ġocc up
t re
Ġexerc ise
D ay
_s um
Ġask ing
apt ion
Ġord ers
Ġsp ending
ĠE RR
.D is
ĠU til
âĢľ I
\ '
? )
/ >Ċ
Ġem ot
Ġinflu ence
ĠAfr ica
att ers
Ù ħ
.s ession
Ġch ief
ĉĉĉĉĉĉĉĉ ĉĉĉ
Ġto m
clud ed
ser ial
_h andler
.T ype
ap ed
Ġpolic ies
- ex
- tr
bl ank
mer ce
Ġcover age
Ġr c
_m atrix
_ box
Ġcharg es
ĠB oston
P e
Ġcirc um
Ġfil led
Ġn orth
icture Box
ĉ res
è ®
Ġter min
Ġ[ âĢ¦
IRE CT
Ġb er
Ġ" ../../
ret ch
.c ode
_c ol
ĠGovern ment
Ġarg v
ĠL ord
as i
Ex ec
ĉ let
vert is
Ġdiscuss ion
en ance
out ube
type of
Ġs erved
ĠP ut
ĉ x
Ġs weet
B efore
ateg y
. of
ĠM aterial
S ort
ON T
ig ital
Wh y
Ġs ust
Ġ ç
ab et
Ġseg ment
Ġ[ ],Ċ
ĠMus lim
Ġfind ViewById
c ut
_T EXT
ĠM ary
Ġlo ved
Ġl ie
ĠJ O
Ġis set
mon th
Ġpr ime
t i
ĠCar ol
U se
ĠP op
ĠS ave
Int erval
ex ecute
d y
ĠI ran
_ cont
ĉ T
Ġph ase
check box
we ek
Ġh ide
Ġt il
Ġj u
C ustom
b urg
/ M
T ON
Ġqu ant
Ġr ub
ix els
Ġinst alled
Ġd ump
Ġproper ly
( List
Ġdec ide
app ly
H as
Ġkeep ing
Ġcitiz ens
Ġj oint
p ool
S ocket
_ op
Ġweap on
gn ore
ĠEx ec
ott en
ĠM S
Ġ( -
ĠRe view
Ġex amples
Ġt ight
! (
D P
ĠMessage Box
Ġphot ograph
UR I
Ã© t
l ow
ĠGr and
.p ersistence
Ġmaint ain
Ġnum s
Ġz ip
ial s
ĠG ets
pe g
ĠB uffer
~~ ~~
ra structure
ĠP L
u en
ob by
size of
Ġp ic
Ġse ed
Ġexperi enced
Ġo dd
Ġk ick
Ġproced ure
avig ator
- on
, j
ĠAl though
Ġuser Id
ac cept
Bl ue
IC olor
l ayer
av ailable
Ġend s
.t able
Ġdat aset
b us
Ġexpl ain
( pro
ĠCommit tee
Ġnot ed
] :Ċ
D im
std io
. ",Ċ
_s ource
ĠWe ek
ĠEd ge
Ġoper ating
Ġest e
i pl
ag ination
Ġpro ceed
Ġanim ation
.Model s
ĠW atch
i at
Ġopp on
/ A
Re port
Ġs ounds
_b uf
IEL D
Ġbu nd
ĉ get
.p r
(t mp
Ġk id
>ĊĊ Ċ
Ġy ang
Not Found
Ñ Ĩ
m ath
@g mail
ĠL IMIT
red ients
Ġv ent
avig ate
L ook
Ġrelig ious
Ġr and
ri o
( GL
_ ip
u an
ici ency
ĠCh ange
> čĊčĊ
ĠEnt ity
Ġrencont re
ĠR et
pl an
Ã© n
BO OL
ur ies
tr ain
Def inition
======== ====
z z
An imation
ĠO K
_m enu
.b l
_s core
Ġac ad
( System
Ġref resh
'=> $
.G raphics
ament o
p id
t c
Ġt ips
Ġhom es
Ġf uel
â ĸ
_h elper
ĠĠ čĊ
ĠR oom
.C lose
_ attr
ĠM ount
ĠE v
ar ser
_t op
e ah
ĠDe lete
ãĢ į
u ke
Ġus age
ar ia
_de v
Ġtext ure
Ġconvers ation
e per
Be an
d one
non atomic
ĠSe cond
Ġshoot ing
_p re
Com ponents
Ġ] ĊĊ
__ ,
stit ution
.Ch ar
> ();ĊĊ
Ġpresent ed
Ġw a
ok er
- ĊĊ
in er
Ġbe coming
Ġinc ident
At t
Ġreve aled
for c
Ġbo ot
.p age
Enumer ator
_ ->
Ph oto
Ġs pring
. ",
ĠD ictionary
B JECT
Ġloc ations
Ġs amples
Input Stream
ĠB rown
Ġst ats
qual ity
Ñ ħ
-d is
Ġhelp ing
Ġp ed
( se
ĠWh o
al ian
int ernal
Ġf t
> ().
-> {
Ġm ine
Ġs ector
Ġg ro
Ġopport unities
ĠÃ ¼
Ġm p
Ġalleg ed
Ġdoub t
M ouse
Ab out
_p art
Ġch air
Ġstop ped
lo op
ent ities
Ġapp s
ans ion
Ġm ental
ĠĠĠĠĠĠĠĠĠĠĠĠĠĠĠĠĠĠĠĠĠĠĠĠĠĠĠĠĠĠĠĠ ĠĠĠĠĠĠĠĠĠ
F R
Ġdef end
c are
Ġide al
/ api
ur face
Ġe le
ul ator
ĠR ights
angu ages
Ġfund s
Ġad apt
At tributes
Ġdep loy
opt s
Ġvalid ation
Ġconcern s
u ce
.n um
ult ure
il a
Ġc up
Ġp ure
.F ore
ĠHash Map
.value Of
as m
M O
Ġc s
Ġst ores
Ġ ************************************************************************
Ġcommunic ation
m em
.Event Handler
. Status
_ right
.set On
S heet
Ġident ify
ener ated
order ed
Ġ" [
Ġs we
Con dition
ĠA ccording
Ġpre pare
Ġro b
P ool
Ġs port
r v
ĠR outer
Ġaltern ative
( []
ĠCh icago
ip her
is che
ĠDirect or
k l
ĠW il
key s
Ġmy sql
Ġw elcome
k ing
ĠMan ager
Ġca ught
) }Ċ
S core
_P R
Ġsur vey
h ab
He aders
AD ER
Ġdec or
Ġturn s
Ġr adius
err upt
C or
Ġm el
Ġin tr
( q
ĠA C
am os
M AX
ĠG rid
ĠJes us
ĠĠĠĠĠĠĠĠĠĠĠĠĠĠĠĠĠĠĠĠĠĠĠĠĠĠĠĠĠĠĠĠ ĠĠĠĠ
.D E
Ġt s
Ġlink ed
f ree
ĠQ t
Ġ/** čĊ
Ġf aster
ct r
_ J
D T
.C heck
Ġcomb ination
Ġint ended
- the
- type
ect ors
am i
ut ing
Ġum a
X ML
U CT
A p
ĠR andom
Ġr an
.s ort
Ġsort ed
. Un
_P ER
it ory
Ġprior ity
ĠG al
ĠO ld
h ot
ĠD isplay
(s ub
_T H
_ Y
ĠC are
load ing
K ind
_h andle
, ,
r ase
_re place
.add EventListener
ĠR T
Ġenter ed
g ers
Ġ ich
( start
/ app
Ġbro ther
M emory
Out let
Ġ utf
pre c
Ġn avigation
OR K
Ġd st
D etail
Ġaud ience
Ġd ur
Ġcl uster
un ched
Ġ ],
Ġcomfort able
. values
ĠT otal
Ġsn ap
Ġstand ards
Ġperform ed
h and
(" @
å Ń
Ġph il
ib r
tr im
Ġfor get
Ġdo ctor
.Text Box
icon s
, s
ĠO p
S m
St op
ĉ List
ĉ u
Com ment
_V ERSION
.X tra
P erson
r b
LO B
ĠĠĠĠĠĠĠĠĠĠĠĠĠĠĠĠ ĠĠĠĠĊ
ĠCent ral
IC K
ra q
Ġput ting
Ġm d
ĠL ove
Pro gram
B order
o or
Ġallow ing
a fter
Ġent ries
ĠMay be
] ).
ĠSh ort
) \
.n ow
f riend
Ġpre fer
ĠG PIO
os is
ĠGame Object
Ġsk ip
Ġcompet ition
_m atch
lic ations
_CON T
.group Box
Ġal s
" We
_e q
l an
_ search
ĠMus ic
as is
Ġb ind
ĠIs land
r um
( E
Ġse at
V ideo
Ġa ck
ree k
={ ()
Ġr ating
Ġrestaur ant
DE X
(b uf
pp ing
ual ity
Ġle ague
Ġfoc used
ap on
$ data
CL UD
CLUD ING
Ġabs olute
( query
Ġtell s
A ng
Ġcomm unities
Ġhon est
ok ing
Ġap art
ar ity
/ $
_m odule
ĠE nc
. an
.Con fig
C re
Ġsh ock
ĠAr ab
I ENT
/ re
Ġre trie
ycl er
is a
ĠO rgan
. graph
Ġ í
ĠB AS
En um
Ġposs ibly
ÑĢ Ð°Ð
ĠJapan ese
Ġc raft
ĠPl ace
Ġtal ent
Ġfund ing
Ġconf irmed
Ġc ycle
/ x
G E
Ġhe aring
Ġpl ants
Ġm outh
p ages
or ia
ĠRem ove
_t otal
Ġo d
oll apse
do or
Ġb ought
Ġadd r
AR CH
_d im
dd en
Ġdec ades
RE QUEST
Ġvers ions
f ire
Ġmov es
f b
Ġcoff ee
.con nect
ĠR ow
Ġs chema
S cope
- Type
Ġfight ing
Ġret ail
Ġmod ified
T F
File s
n ie
_com mand
st one
Ġ ÑĤ
_ thread
Ġb ond
ĠDevelop ment
Ġp t
F ORM
ple t
Ġident ified
c pp
Ġc oding
ok ed
ĠM aster
ID TH
Ġres idents
red it
ĠPh oto
= -
un te
ate ur
_ST ATE
ĠS ing
Ġshe et
. val
or se
Ġh ers
Ġdetermin ed
Com mon
Ġw ed
_ queue
P H
ĠAt l
cre d
/L ICENSE
Ġm es
Ġadv anced
.j ava
.S h
G o
k ill
f p
_set tings
Ġp al
Ġtr uck
Ġcomb ined
Ġ" ${
ĠCor por
Ġjo ined
ĠJ ose
ĠC up
un s
est ival
lev ision
Ġbro ken
Ġmar riage
ĠWest ern
Ġrep resents
ĠT itle
Ġs s
.A ss
ongo ose
ient o
< >();Ċ
Ġabs olutely
Ġsm ooth
TER N
ĠUn less
W ord
Ġmer ge
ig an
ĠV ol
Ġn n
.get Id
ĠÐ ·
Ġsex y
Ġseek ing
S ingle
. this
Ġk om
b ound
; "
Ġfont Size
_d f
Ġinj ury
( H
Ġiss ued
_ END
: self
Ġp atch
Ġle aves
Ġad opt
File Name
ãĢ Ĳ
Ġexec utive
ĠBy te
] ))Ċ
Ġn u
out ing
clud ing
- R
. options
Ġsub stant
av ax
ĠB UT
Ġtechn ical
Ġtw ice
Ġm Ã¡s
Ġun ivers
y r
Ġdr ag
ĠD C
Ġs ed
Ġb ot
ĠP al
ĠH all
forc ement
Ġa uch
.m od
not ation
_file s
.l ine
_fl ag
[ name
Ġres olution
Ġb ott
(" [
end e
( arr
F ree
( @"
ĠD istrict
PE C
: -
P icker
ĠJ o
ĠĠĠĠĠ Ċ
ĠR iver
_ rows
Ġhelp ful
Ġmass ive
--- Ċ
Ġmeas ures
ĠR untime
Ġwor ry
ĠS pec
ĉ D
ãĢ ĳ
Ġ) {Ċ
Ġwor se
(f ilename
Ġl ay
Ġmag ic
ĠThe ir
ou l
st roy
ĠWh ere
Ġsu dden
Ġdef e
Ġb inding
Ġfl ight
ĠOn Init
ĠW omen
ĠPol icy
Ġdrug s
ish ing
(' ../
ĠM el
pe at
t or
Ġpro posed
Ġst ated
_RE S
Ġe ast
ĠCON DITION
_d esc
Ġwin ning
fol io
M apper
ĠP an
ĠAn ge
.s ervlet
Ġcop ies
L M
Ġv m
å į
Ġd ictionary
S eg
el ines
ĠS end
Ġ iron
ĠF ort
.d omain
Ġdeb ate
Not Null
e q
ach er
l f
ĉf mt
Ġlaw y
Ä Ł
ĠM en
Ġtr im
( NULL
Ġ! !
Ġp ad
Ġfollow s
"] ["
re qu
ĠE p
.g ithub
( img
et o
(' \
S ervices
umbn ail
_m ain
ple ted
fort unately
Ġw indows
Ġpl ane
ĠCon nection
. local
u ard
} \
== "
and on
ĠR oy
w est
ig inal
em ies
it z
') :Ċ
ĠP eter
Ġt ough
Ġredu ced
Ġcalcul ate
Ġrap id
c ustomer
Ġeff icient
Ġmed ium
Ġf ell
. ref
ĠC as
Ġfeed back
S peed
( output
aj e
Ġc ategories
Ġfe e
} ;
Ġde leted
re h
Ġpro of
D esc
B uild
Ġs ides
.Array List
- %
ĠĠĠĠĠĠĠĠĠĠĠĠĠĠĠĠĠĠĠĠĠĠĠĠĠĠĠĠĠĠĠĠ ĠĠĠĠĠĠ
Ø ±
.m atch
Ð» Ð¸
Ġfe els
Ġachie ve
Ġcl im
_ ON
ĠC D
Ġteach er
_c urrent
b n
_P L
ist ing
En able
G EN
Ġt v
Ġso ck
Ġpl ays
Ġdis count
ĠK E
ĠDe bug
F ore
ĠI raq
Ġappear ance
M on
Ġst yled
ĠH uman
i ot
ĠH istory
Ġs ac
ĠC ollection
Ġrecomm ended
.Se lected
Ġorgan izations
Ġdiscover ed
co hol
ad as
ĠThom as
M ay
Ġcons erv
Ġdom in
ĠF ollow
ĠSe ction
ĠTh anks
User name
Ġrec ipe
Ġwonder ful
.s leep
_ if
ĉĊ ĉĊ
orn o
Ġr u
_t arget
." "
à ¦
Event Args
Ġinput s
Ġf if
Ġv ision
c y
ĠS eries
) (((
Ġtr ading
Ġmark er
B egin
Ġtyp ically
Ġca uses
drop down
_DE BUG
Ġdet ect
c ountry
! ");Ċ
ĉ R
app y
Ġc ref
(' <
" =>
ĠL E
read er
Ġadmin istr
Ã µ
uck et
Ġf ashion
. char
iz ar
Ġdis able
Ġsu c
ĠL ive
iss ue
Ġmet adata
fl ags
Ġ ðŁ
Ġcomm itted
Ġv a
Ġr ough
Ġ'' 'Ċ
Ġhigh light
_var s
V O
Ġenc oding
- Z
_s ign
$ ("#
Ġr ain
reate st
ĠEN D
Se lection
Ġcandid ates
Ġs av
. Empty
Ġdec isions
Ġcoll abor
rid ge
fe ed
ress ion
Ġperson s
V M
eg a
_B IT
A ccording
ack ed
Ġdoll ars
_lo ss
ĠC ost
} "Ċ
Not ification
Ġpro stit
Ġauthor ity
.re c
Ġsp okes
ĠT oday
ist ant
ĠHe ad
âĢĿ .
ertain ment
ce an
cul ate
Ġv en
How ever
_ arr
Ġtok ens
G raph
ĠJ ud
ĠVir gin
ĠS erial
un ning
M utable
ag ers
.c sv
Ġdevelop ing
Ġinstruction s
Ġprom ise
Ġrequest ed
_ encode
/ "
ĠI con
u ilt
- day
Ġint elligence
. IS
ĠO bservable
ĠH ard
Bo ol
ident ial
.An chor
Ġsell ing
C I
AG ES
t le
b ur
UFF ER
R Y
Ġbig ger
Ġr at
Ġfam ous
Ġtyp ename
Ġexpl ained
} }Ċ
Ġn uclear
- N
Ġcr isis
ĠEnt er
Ġan swers
/ ${
/ pl
Ġse qu
_n ext
m ask
Ġstand ing
Ġpl enty
ĠC ross
ĉ ret
d ro
ĠC ast
= true
ĠCh ris
ic io
ĠM ike
Dec imal
add Component
L en
Ġco ck
Ġ# {
UR N
< tr
Ġauthor ities
Res ources
- H
B ottom
_ qu
put er
ester day
Dis patch
s ince
Ġfam iliar
, i
V C
Ġm ent
, C
Ġfre edom
Ġr outes
ĠB uy
Ġcomm ands
Ġm esh
/ C
ĠSet tings
- style
Ġw itness
Ġc le
Ġun ion
ef ault
are t
Ġthought s
Ġ ----
_pro cess
_ us
ing ly
U ES
T ouch
ĠÐ ¼
_ open
ĠV ec
Ġre ward
.C lick
/ :
Ġn ie
Ch anges
M onth
ï¼ Ł
Ġexec ution
Ġbe ach
( Integer
ĉ a
/ '
.Font Style
Ġab ort
ĠS ingle
( isset
Ġd p
Ġ}} </
ĠM a
.R ows
ĠP et
% )
r and
é Ģ
R ule
Ġh el
R ITE
Ġqu iet
Ġr atio
ĠCONDITION S
os oph
ĠI L
Ġad vent
c ap
; </
ĠUS B
D river
Ġour s
ĠJohn son
. K
_de lete
. q
ĉ str
/ common
ĉ string
ĠP DF
act s
.A ction
ĠQu ery
. response
ĠG irl
Ġprocess es
< Integer
im o
Ġadd s
Ġentire ly
Ġwas h
/ ************************************************************************
Ġanim ated
Ġprof it
enc ing
/ S
ĠS ym
Ġman ual
Down load
Ġ(! $
Ġmot ion
web pack
-b ottom
Ġgrat uit
P G
(: ,
Ġ era
Ġh o
ĠJ im
qu ir
ĠBAS IS
Ã¡ n
D ER
Ġexp ensive
_c o
B ounds
W ell
ĠDemocr atic
ĠâĨ Ĵ
.R em
_S Y
n ames
ĠV i
Ġis instance
\ ">
Ġ* =
ĠP S
Ġdanger ous
[ p
OM E
O ther
ĠString Builder
Point s
head ing
Ġc urrency
Ġpercent age
_A PI
Ġclass ic
the ad
ĠM O
F E
Id x
aw ait
ĠÃ ¨
Ġacc ident
Ġvari ant
Ġm yst
ĠL and
ĠB re
Ġh arm
ĠA cc
Ġcharg ed
ion es
Vis ibility
ar ry
ĠL anguage
Ġwalk ing
" .ĊĊ
if er
Ġleaders hip
.F rom
yn am
Ġt imestamp
i pt
ĠH as
REF ER
ĠIt s
Ġlist ener
UT E
_d escription
Ġexperi ences
Ġcre ates
R S
c art
bl ack
Ġcho ices
w ar
Ġ'' '
Ġorder ed
Ġeven ing
Ġp il
Ġt un
ĠB ad
( app
r andom
Ġexp licit
Ġarr ived
Ġf ly
Ġecon om
-m ail
Ġlist s
Ġarch itect
ĠP ay
Ġd s
ĠS ol
Ġveh icles
H z
- com
Ġk ing
_e qual
ĠH elp
Ġab use
-- ;Ċ
Ġex tr
Ġchem ical
ä ¿
Ġor ient
Ġbre ath
ĠS pace
(e lement
w ait
DE D
ig ma
Ġent r
Ġs ob
- name
Ġaff ected
ik a
Ġco al
_w ork
Ġhundred s
Ġpolit ics
sub ject
Ġconsum er
ANG E
Ġrepe ated
S end
Ġ# [
Ġprot ocol
Ġlead s
use um
E very
Im port
(c ount
Ġchalleng es
Ġnov el
Ġdep art
b its
.C urrent
Ġ` ${
ot ing
( \
Ġcreat ive
Ġbu ff
Ġintrodu ced
us ic
mod ules
A re
-d oc
l anguage
_c ache
Ġto d
? ></
om ething
Ġh un
å º
at ers
Int ent
Ġimplement ed
ĠC ase
Child ren
Ġnot ification
Render er
W rapper
Object s
t l
.Cont ains
Pl ugin
. row
Ġfor g
Ġper mit
Ġtarget s
ĠI F
Ġt ip
se x
Ġsupport s
Ġf old
ph oto
} ,čĊ
Ġgo ogle
$ ('#
Ġsh aring
Ġgood s
v s
ĠD an
R ate
ĠMart in
Ġman ner
l ie
. The
Int ernal
ĠCON TR
M ock
R IGHT
Ġ' {
Ġcontrol s
M at
Ġm and
Ġext ended
O k
Ġem bed
Ġplan et
ĠN on
- ch
) ",
ep ar
Ġbelie ved
ĠEn vironment
ĠF riend
- res
Ġhand ling
n ic
- level
s cri
X ml
B E
ung en
Ġal ter
[ idx
P op
c am
Ġ( ((
Ġsh ipping
Ġbatter y
iddle ware
M C
Ġim pl
ot ation
ĠL ab
< form
ĉ name
ĠG ames
r ay
Ex tra
T wo
( player
ĠL es
Â °
Ġchar set
Ġjour ney
et ing
æ ĺ
â Ķ
çĶ ¨
Ġd in
Ġper man
Ġsol ve
Ġla unched
Ġn ine
Ġs ending
Ġtell ing
.p assword
ĠM atrix
er ic
Ġgr ab
. u
ĠLib rary
Ġdeb t
IN K
.find ViewById
Ġfrequ ency
. ad
_T EST
Ġneg ot
ĠAfr ican
s ender
Å ¡
G lobal
Ġexpert s
++ )čĊ
Ġdep ending
gr ay
Ġjud ge
Ġsent ence
los ure
A c
Ġtr ace
Ed ge
Ġfriend ly
Ġconcern ed
b log
Ġclaim ed
} '
int eger
_t ree
ĉ continue
x i
Ġaccept ed
_ one
ĠEduc ation
ublish ed
g on
app oint
out s
Ġmin ing
Ġsong s
Ġhers elf
Ġgr anted
Ġpass ion
ĠL ake
Ġlo an
u ent
ch ant
Ġd etailed
ex cept
_c md
ĠH E
Rel ated
z t
' },Ċ
Ġspecific ally
St atic
Ġcar ried
AN S
\ ":
C reated
Ġc ul
] -
_ api
F P
Ġsit ting
Ġ" ")
ĉg oto
ĠE qu
Ġass ault
k ins
anc er
og en
Ġvot ers
ĠPro t
Des criptor
ãĥ ¼
.Ass ert
bs ites
ost er
-m enu
Ġar ms
.C lient
.back ground
av ity
Ġv ul
_M ASK
Ġhous ing
Ġbe ar
_ iter
p ired
Ġmark ets
ĠSt udent
Ġt icket
Ġmill ions
fl ater
) =
Ġre cover
ĠFor ce
ĠBo th
Ġvict im
ĠD isc
re port
Ġfour th
ĠAs sembly
/ user
Null Or
text area
Ġa th
Ġ( [
Ġch annels
ĠJust ice
cho ice
LOB AL
ex ec
em ale
Ġe lem
_ le
Ġrespons ibility
ĠT w
IC ATION
Ġelse if
Ġf o
ast s
Ġt reated
s en
ĠV ict
sum er
_B ASE
Ġa st
> {{
ĠRes ource
ĠSt andard
ĠP rem
up dated
ival ent
Ġas sets
_t emp
Ġinterest s
Ġhard ware
ĠR om
ĠSh are
Ġ' 'Ċ
Ġ* ,
ĠT ake
ĠIm ages
_C HECK
(type of
ĠJ un
\< ^
Ġli qu
Ġwor st
ymb ols
ĉĉĉ ĠĠĠ
Ġdr ivers
ĠD ocument
en o
ĠTechn ology
Ġappro ved
ump s
Ġs now
form ance
_A SSERT
u its
Ù Ĩ
Ġdiffer ences
. Visible
ĉĉĉ čĊ
ĠP s
_f etch
Ġto do
. ',Ċ
Ġs el
ur ers
in valid
Ġt weet
V EL
Ġresearch ers
Ġs printf
ĠR O
Ġp el
.Tr ans
Ġil legal
d ialog
sm arty
l g
_M IN
Ġher o
f inal
Ġp p
.L e
Ġc i
ĉ RT
Ġsuggest ed
p df
ach ing
ĠR o
ĠProp erties
ĠS i
Ġbuy ing
Ġm u
Ġl ands
if iers
ĠF ILE
RO UP
Ġh older
ĠS on
Ġsym pt
.r oute
) ?
Ġarg c
Ġfor t
Ġcas ino
_c ategory
Ġfor um
p refix
apt ure
T ube
em s
im ize
Ġn ue
a us
c ourse
AT OR
() ),
Ad vertis
ING S
Ġack now
ĠKore a
pl ing
Ġwork er
PL IED
h al
ĠRich ard
Element s
ĉĉĉ Ġ
st ar
Ġrelationship s
Ġche ap
AC H
ĠX ML
, &
ĠLou is
Ġr ide
_F AIL
Ġch unk
[ s
_O UT
Ġch osen
_ [
/ (
ĠJ eff
_s l
pr iv
ĠCan adian
Ġun able
_F LAG
Ġn os
h igh
Ġl ift
f un
() {
el ly
ycler View
_ as
_L IST
Ġr adi
.get Value
ĠAnge les
ĠS pan
_in stance
it ors
Ġm igration
A K
O h
Â ®
. selected
ĠG T
Ġadv ance
ĠSt yle
.Data GridView
e ction
Ñ İ
p io
ro g
Ġsh opping
ĠR ect
I lluminate
O U
ĉ array
Ġsubstant ial
Ġpre gn
Ġprom ote
IE W
.L ayout
Ġsign s
/ .
Ġlet ters
Bo ard
ct rl
" \
ĠJ ones
Ġvert ex
Ġj a
Ġaff ili
Ġwe alth
ĉ default
Ġsignificant ly
Ġe c
Ġx s
act ual
.p er
_st ep
an vas
m ac
Ġtrans l
ĠĠĠĠĠĠĠĠĠĠĠĠĠĠĠĠĠĠĠĠĠĠĠĠĠĠĠĠĠĠĠĠ ĠĠĠĠĠĠĠĠĠĠĠĠĠĠĠĠĠĠĠĠĠĠĠĠĠĠĠ
Iter ator
Ġo ch
agnost ic
ĠD uring
ĠDE FAULT
Ġt ill
Ġsign ature
Ġb ird
ĠO l
ĠI r
H S
av atar
ESS AGE
Ġe lev
Ġm t
ĠN av
Ġrel ax
Ġpl ate
IT EM
( date
.n ot
Ġgr ade
Ġ} ),Ċ
? "ĊĊ
i ences
H igh
ĠD IS
dis abled
Q UI
Ġno ise
a ux
ĠU P
os a
Ġv oc
Ġ ))
oc om
_O FF
ĠD b
L ock
.e clipse
, d
ĠD raw
Ġ" (
Ġvis ited
Ġâ Ī
Ġsuc ceed
Ġim possible
a ire
ĠT urn
Ġd ish
F G
Ġs ensor
AN N
ab a
Ġsur g
] );čĊ
Ġf p
_ an
- J
- G
ĠJ ob
Con vert
ĠKE Y
Ġauth ors
_s erver
\ r
Ġ-* -
f lex
Ġs oc
R et
Ġs alt
ĠâĢ¦ ĊĊ
ĠC lear
(p age
-d anger
Ġroom s
con v
# {
. op
ĠA rea
_S C
h en
Ġbeg ins
- y
Ġexc ited
Ġign ored
Ġbon us
st udent
ĠM ember
Ġrel atively
ĠL ow
ĠPro du
ate way
pos ure
Ġth ick
ani el
( view
ĠCr ush
Ext ension
I l
e ed
LO C
. im
. Items
Ġconflic t
.pre vent
Ġon Create
u v
is er
Ġw ave
M ar
ĠComm unity
ic he
ĠNo thing
[ m
ĠLe e
ri ends
Ã¨ re
!! !
an z
. result
ĠS K
_P ARAM
Ġdem ocr
Back Color
.ex ists
" It
( options
ra zy
as er
\ Database
al endar
_ ass
; }Ċ
vert ex
ine craft
W arning
arg o
Ġact or
ĠInst ead
ĠUs ing
S elf
@ interface
Ġspe aking
ĠPar is
ĠL ICENSE
.n ode
ĠF ood
E IF
ĠB i
. Start
ĠI B
Ġun iversity
ĠHe ader
.pro duct
C opy
et c
r ical
Ġ> >>
book s
Ġal gorithm
Ġ' __
(j avax
Ġnumer ous
Sh are
H ave
Ġrec ru
Ġpro ve
.sub string
he alth
Ðµ Ð»
Ġdec imal
Ġcomm ission
s cription
x C
Ġsum mary
att ed
Ġclo ser
fin ished
() ){Ċ
ĠW ood
_field s
k u
_ items
Fl ag
Ġconf idence
ĠF ederal
du x
Ġcomp at
Ġvert ical
Ð ¹
Ã¨ s
; ">Ċ
_m anager
() ))Ċ
ID E
: ",
__ Ċ
ĠW ay
Ñ Ī
T emp
ĠS TR
rit ten
S ync
ĠA V
ĠC EO
ĠG uid
Ġenvironment al
Ġcorrespond ing
ĉ console
Ġjust ice
ĠJ S
Ġl ived
g ar
ĠG raph
ĠSt at
Ġi Phone
. al
ĠH D
Ġocc ur
Ġth reshold
Ġon click
RE G
.Graphics Unit
M eta
Å ¾
Ġc um
.g nu
Ã «
Ġobt ained
Ġcompl aint
Ġe ating
Ġt ar
_t ask
Ġopt s
( to
P ass
Ġpl astic
t ility
ĠW in
.prevent Default
p ile
ĠG ar
Ġqu antity
_l ast
Ġg reatest
D ao
_D IS
ĠUs ed
ĠH P
rit ing
S ION
bl ue
d omain
Ġs cores
N ormal
_ admin
ĠA SSERT
Th en
** *
d ist
l on
Ġh ate
sh al
Image View
d atabase
Ġp and
Ġlog ic
= false
b g
ĠConfig uration
Ġn ur
O G
Ġmar ried
: +
Ġdro pped
Ġreg istration
Ð¾Ð ¼
ult iple
iz ers
sh ape
.c opy
Ġwe aring
ĠC ath
Ġded icated
Ġ.. .Ċ
Ġadv oc
ĠF amily
Ġstat ements
em atic
ampions hip
Ġmot iv
ĠH ave
Ġbl ow
J ob
c ert
_v ector
inst all
ĠC OPY
em bed
D IR
ĠS pring
Ġex hib
cd n
ĠCom ment
ĠOption al
. player
ĠD ark
( pos
ĠSh ould
Ġcent re
ĠGu ard
Ã³ w
Ġtr ouble
EN ER
( unsigned
_s ervice
Ġn s
ul ing
ĠMex ico
ĠN Y
mys ql
Ġl ic
å ľ
M r
- fl
ĠC ustomer
id i
Ġ? >ĊĊ
ri ble
ĠÐ¿ ÑĢ
Ġs izes
_STR ING
valid ation
ĠJ on
( Http
add Class
N odes
Ġfrag ment
Ġsp oke
Ġw aste
J oin
Ġill ustr
el i
c ient
Ġa id
Ġpro sec
') {Ċ
Ġpass ing
Ġf aces
Sh ape
_ Z
it i
Ġal le
Ġro bot
ĠĠĠĠĠĠĠ Ċ
ĠS pe
Ġrece iving
ĠD etails
Ġ" )
m g
_RE F
Ġcompar ison
* ,
ĠF ound
_s ession
( U
/ F
Ġx xx
N etwork
d ers
Ġcap ture
Ġcor re
ĠL td
ĠAd v
[ @
Ġcl ip
M ill
ĠPro file
Ġend if
Ġob lig
des cribe
.e lement
riter ion
L D
er ed
Ġfav our
s core
ĠF ilter
at tributes
Ġcheck s
In flater
ĠPl us
Ġscient ific
Ġpriv acy
He ad
Ġfe at
Ġdeg rees
ĠP ale
; ">
Ġfil ms
ĠA udio
ĠT ag
ĠE nergy
it ar
par ator
Ġf ellow
Ġev t
ĠT ri
ĠD AM
cl oud
ĠP assword
ĠDemocr ats
ĠAc ad
$ lang
Ġre b
() )ĊĊ
Ð½ Ñĭ
ĠB ur
read cr
Ġh ex
Con sole
ct l
ous el
ĠWill iam
Ġa z
_P ORT
Ġpract ices
Ġany where
ĠP osition
Ġ- >Ċ
i ams
.user name
place holder
Ġo der
ĠSecret ary
Ġi T
mon d
event s
? âĢĿ
.S ub
Ġatt ached
Ġn Ã£o
Ġest ate
. action
Ġfig ures
Ġ} );čĊ
Ġsubs cri
.t ag
n am
. plot
no on
li ament
Char acter
.t ab
Ġw inter
ĠVar iable
Ġtre es
Ġpr oud
( V
_ load
Ġh ier
ĠE con
Ġf d
Ġvict ims
R est
ian a
Ġf ake
.Print ln
Ġstr len
Ġs ad
Ġb le
Pro t
Ġbutton s
Ġte levision
Ġlog o
ext ension
ĉ j
ste in
acion es
Ġ"" "ĊĊ
Ġsim p
Ġrecord ed
Ġbr ings
Ġprincip al
Ġfe es
(s ource
k dir
Ġutil s
Ġcorrect ly
f il
Ġw el
P air
-b utton
s cale
ver ify
[ c
Ġ-- -
Ġes cape
ik es
Lower Case
ic ian
Ġch apter
ĠT YPE
Ġsh adow
Ġaw esome
W E
el if
Ġl ambda
Ġdist inct
Ġb are
- off
Ġcol our
.append Child
ole c
ag a
.f ill
ĉs uper
Ġad j
( position
.get Item
Sh ort
Ġtot ally
V D
ĠT re
_ ep
v ements
ĠS olution
Ġfund ament
F ollow
Ġfac ility
Ġhappen ing
O F
.text Box
S pan
ĠÂ «
id en
Ġex ceed
(p arent
Ġc p
ç »
Ġhas n
Ġp ri
Ġcon sequ
n en
ĠIN TO
I gnore
ĠF uture
Ġcar bon
ĠSte el
f mt
ok ie
Ġs pl
(t itle
- info
Ġde als
Ġfix ture
e a
D iv
Ġtest ed
_ return
)ĊĊ ĊĊ
upport ed
ĠC ook
Ġpay ing
ĠI ll
Ġarrest ed
ĠPr ime
_c allback
> ,Ċ
dr iver
On ce
ab b
_by tes
ĠS ets
( Object
Ġc c
Ġsh ell
al o
); //
( log
ct ors
) </
Ġneighbor hood
ail ability
v ol
Ġyou th
Ġtechn iques
ĠS chema
u h
ment e
Ġre pository
im m
Ġcook ie
J S
ov ies
: {
Com plete
S ince
Ġla ugh
_B O
en able
ĠDo es
ĠW alk
wh at
k es
Ġmult ip
im ents
e ur
Ġvict ory
Gener ator
ĠM os
ro vers
Ġcomput e
Ġprovid ers
ĠMed ic
L P
_CON FIG
Ġv eter
st ers
_w indow
umer ic
ĉĉĉĉĉ Ċ
. Response
Ġrepl aced
. root
-f ree
- container
Ġmatch ing
ĠEd itor
= ${
ĠS af
Ġs ind
(b uffer
å ĩ
.ed u
) ];Ċ
ĠN FL
ay a
Ġdog s
Ġdes ire
ĠM iddle
C art
Th eme
Ġm ob
Ġdisplay ed
ig it
Ġadult s
"" "
Ġdeliver ed
vis ible
": {Ċ
<< <
ĠG O
sc roll
x E
Ġass igned
ĠB ool
Ġw p
Ġcomb at
ĠH aw
. -
Ġsupport ing
.Cont ent
irc raft
Ġsp in
ĠC R
.m y
à ¥
t pl
Ġsp aces
? ,
ĠSy ria
Ġpattern s
- box
Ġfr amework
/ %
(l ong
Ġteach ing
ARN ING
_key s
Ġtable s
UN C
in ations
- weight
r adio
ĠP ac
.s erver
.Char Field
r ing
Ġqu ote
ann a
Ġwer den
Ġc ream
Ġmach ines
- k
Ġst im
ĠSt ock
r ick
Ġimport ance
r x
Ãµ es
Ù Ī
Ġst roke
ag ra
Ġt aste
ĠDE BUG
Th anks
ĠRe quired
ov a
M edia
Ġsi ÄĻ
(b ase
post s
Ġfile Name
Check ed
Ġinter rupt
Ġ( )Ċ
py thon
p air
Ġcirc le
Ġinit i
_st ream
Ġcomp reh
lear n
P ublic
Ġhum ans
Ġbring ing
ograph ic
_l ayer
- like
upport Initialize
ide bar
Ġvot es
Ġdes ired
M ask
Ġrel ation
. Instance
H elp
Ġins pir
ĠMon o
View Model
omet imes
Ġbackground Color
Ġrot ation
Ġm ari
/ test
INS ERT
St ar
ph y
Id s
_G ET
Ġincre ases
_c lose
_F ORM
Ġ[âĢ¦ ]ĊĊ
az a
TE XT
ĠÃ ¤
ĠV an
Ġl ights
ĠGu ide
Ġd ates
.Com mand
am an
Ġpath s
. edit
ĉ add
d x
Ġre action
ĠBe ach
.get Message
En vironment
inter est
Ġmin ister
Ġread ers
ĉ F
Ġdom estic
Ġfile d
C ity
Ġm apping
ĠD ES
Ġrep air
t ics
ix ture
Ġn ombre
.IS upportInitialize
z o
.Is NullOr
ĠCarol ina
ĠD er
ĠE VENT
Ġg est
Ġh ist
res ources
Ġor phan
.A re
ĠIn vest
REFER RED
.Log ger
ĠR oman
Ġcult ural
fe ature
pt s
b t
Ġd ot
Ġdi am
us pend
_ access
() {čĊ
Ġsurpr ise
ab il
Ġv irt
Ġb omb
ar on
_ IS
Ġv ast
Re al
ep end
ict ed
Ġpick ed
ĠF L
ĠRepublic ans
.z eros
Press ed
s up
.C ore
M icrosoft
s ervices
ag ic
iven ess
Ġp df
Ġro les
r as
Ġindust rial
Ġfac ilities
è ¡
Ġn i
Ġb a
Ġcl s
ĉ B
C ustomer
Ġimag ine
Ġex ports
Output Stream
Ġm ad
( de
) {ĊĊ
Ġf ro
h us
Ġcommit tee
ìĿ ´
, x
Ġdiv ision
( client
(j ava
option al
. Equal
ĠPh ys
ing u
Ġs ync
ĠN a
}} </
OL UM
it Ã©
Ġident ifier
ow ed
Ġext ent
Ġh ur
V A
cl ar
Ġed ges
C riteria
Ġinde ed
in herit
ĠN ight
Ġreport ing
Ġen counter
Ġkind s
_p red
Ġconsider ing
. (
Ġprote in
T yp
gr icult
ĠB all
@ Component
ĠE ss
ĠR ub
ul p
ĠĠĠĠĠĠĠĠĠĠĠĠĠĠĠĠĠĠĠĠĠĠĠĠĠĠĠĠĠĠĠĠ ĠĠĠĠĠĠĠĠ
it ud
. attr
ient e
Ġsp ell
ĠJ oe
ENT ER
_h ost
it an
Ġm atters
Ġemerg ency
u ated
ĠCh at
={ '
contr i
ark er
æĪ Ĳ
ip er
Ġs cheme
(std err
Ġ* (
ce iver
.c olumn
Ġmark ed
_AT TR
Ġb odies
ĠIM PLIED
G ap
ĠP OST
Ġcorpor ate
Ġdim ension
Ġcontr ast
erv iew
ĠERR OR
Ġcap able
Ġadvert ising
urch ase
ĠP A
ĠFranc isco
Ġfac ing
ãĢ Į
g it
Ġbe er
Ġsk y
down load
ĠC ur
m c
ann y
.f loor
Ġc riteria
Ġparse Int
` ,Ċ
Ġas pect
Ġbund le
C ould
Ġt ank
- id
Ġh urt
Ġbroad cast
OK EN
ow nt
null able
C ap
Ġal cohol
ĠC oll
ĠH elper
ĠA f
.m ethod
Ġpl anned
pl er
ĠS ite
Ġres c
om ent
ĠJava Script
S ERVER
Ġr hs
er es
(" ,
if i
.f ields
Ġpark ing
Ġis land
Ġs ister
_ Ċ
Con straints
ĠA ust
d im
_point s
Ġg ap
_ active
Ġvo or
ĠP O
B ag
-s cale
l ambda
.Dis pose
r ule
Ġown ed
ĠMed ical
ent ries
Ġsol ar
Ġresult ing
Ġest imated
Ġimpro ved
D uration
employ ee
$ .
Action s
L ike
, (
( Request
% s
. Open
) "Ċ
Ġp ixel
Ġad apter
Ġre venue
og ram
ĠL A
ĠM achine
Ġ Ø§
Ġf le
Ġb ike
In sets
Ġdis p
Ġconsist ent
a Ã§Ã£o
g ender
ĠTh ose
per ience
.Back Color
. play
Ġr ush
Ġax ios
Ġne ck
_m em
.P REFERRED
_f irst
C B
ĠW idget
Ġse q
h ar
Ġh its
Ġâ Ĥ¬
Ġcont ained
ri ent
w ater
LO AD
ĠVirgin ia
ĠAr m
Ġ. /
Â »
_ root
Ġass istance
[ ],
s ync
Ġve get
es cape
ic er
bo ost
ĠF loat
- W
*/ čĊ
* >
Ġ$ (".
.p os
Ġbo ys
Ġwed ding
Ġag ents
=" _
ĠAr my
Ġh int
v ision
Ġte ch
ĠCon nect
Ġleg end
ĠB et
.B ase
Sub ject
Ġl it
Rem ove
Ġ" :
ĠF inal
pear ance
ĠiT unes
Ġparticip ants
ĠPy thon
Ġbus y
i el
vert ices
Ġtemplate Url
ĠC lose
Im g
ĠCorpor ation
t imestamp
Ġext end
Ġwe bsites
Ġposs ibility
Ð¾ ÑĤ
Ġk Ã¶
Ġme at
Ġrepresent ation
Ġ ĉĉ
_ST ART
.app ly
ĠVal ley
ĠS uccess
H i
Ġn ob
ĠI Enumerable
_ select
ge o
. ")Ċ
Ġturn ing
Ġfab ric
(" ");Ċ
Ġpers pective
é Ĺ
ĠS n
Th ank
; j
.Param eters
ĉ ĠĠĠĠĠĠĠĠĠĠĠ
Ġfact s
Ġun t
.in stance
################################ ################################
- end
ĠJO IN
ĠH en
Ġur i
åĲ į
ĠÐ½ Ð°
ĠIn fo
Ġconduct ed
ĠÃ ¥
OUR CE
Ġw ine
J ohn
.Error f
ĠA ge
ound ed
Ġreal ize
Ġ] ;
Ġsub sequ
, m
( User
ian o
Ġaccom pl
is p
.st d
é ĩ
ĠB ed
.set Attribute
B R
ke ep
ĠA LL
Ġis ol
am ma
P ackage
Ġoccas ion
-s uccess
ÐµÐ ´
ĠLIMIT ED
st rip
() ĊĊĊ
istrib ution
Color s
Ġ+ :+
Did Load
al er
Ġt id
ĠL ED
ĠLink ed
ĠC art
() )čĊ
_RE AD
Ġkill ing
ĠP HP
fe ction
Ġinst ances
c v
"/ >
Ġs f
Ġtax es
_ location
ĠBit coin
u able
r ank
ign ore
tr ack
Ðº Ð°
Ġshould n
ĠO P
=> {Ċ
Ġk m
Ġh elper
_ head
ĠWh ether
oc o
_b l
Ġstat istics
Ġbeaut y
Ġto g
t ip
ëĭ ¤
Ġc sv
(s ql
std lib
we ak
Ġlik es
Ä į
Ġrepe at
Ġap artment
Ġem ph
_ edit
Ġv it
ĉ type
E ven
ut en
Ġcircum stances
b ian
Ġs ugar
W indows
ì ŀ
Ġobs erved
/ data
Ġcal endar
Ġstri ke
ĠR ES
_s c
f ony
ore m
( z
p ower
et ect
ĠS at
.d escription
Ġg ang
ĠS ports
ong s
ĠB undle
.s um
on ce
Ġacc used
Ġexplo re
Ġapprox imately
Ġlos ing
thes is
ĠF und
Ġdi agn
A utowired
prop erties
Ġ_ .
Ġc nt
ced ure
Ġy y
Ġgr ant
so ck
.inner HTML
Ġ] );Ċ
ĠCON FIG
=' $
] ];Ċ
UN D
Ġg lob
Ġd ire
uff le
_M EM
Ġauth entic
> ("
Ġdec ade
ĠIm port
Ġorigin ally
Ġj Query
Ġindic ate
Ġours elves
S w
.l bl
ener ate
Ġbas ically
ĠH om
Ġ+ #+
ĠBrit ain
ĠK ar
to Equal
.st op
Ġmod al
is i
Ġsuggest s
Ġd type
Ġt ur
b f
Ġconnection s
ĠB efore
ist ed
m ouse
Ġpul led
.b uild
Ġlegis lation
Ġfor th
p ad
eg o
.N ow
Ġexc iting
}ĊĊ ĊĊ
Ġcom pr
Ġsh ares
Ġr ig
g reen
_ vec
Ġenumer ate
A uto
ic ator
ĠR ay
as se
Ġh oliday
Ġnull able
g un
_d etails
Ġwr apper
se q
ĠYou ng
ju ana
Ġ" __
lic ense
ser ve
^ (
id ers
.Rem ove
rop down
' S
p in
(t oken
.D efault
Ġreason able
amp ion
ĠS ociety
Ġbe i
erv es
r ad
ĠF ox
_ images
Ġw heel
') [
Ġc fg
( By
Con structor
Ġv ary
.sw ift
Ġpro xy
ĉ H
ĠAn other
ĠP en
Ġcheck ing
Ġj est
man ager
Or igin
ug s
o ir
>< !--
Ġexpress ed
Ġmod er
Ġag encies
Ġi h
-h idden
ious ly
ĠR od
Ġso le
M ed
.A ny
Ġp c
b al
Ex ample
ĠS ale
Ġst rip
ĠCom p
Ġpresident ial
M ost
put ation
( ref
ĠF our
_f ilename
Ġen forcement
Ø ¯
ĠGe org
we ights
/ l
Ġag gress
Ġd rawing
and y
< I
- j
ak a
h ref
Ġteach ers
_ Q
( it
ĠM B
Ġtemp orary
ire base
str a
æĹ ¶
è ´
( label
ou p
Ġtop ics
Ġport ion
id os
ĠJew ish
Ġre covery
Ġstand s
# [
Ġafter noon
ĠArt icle
_ att
Ġexpl an
ĠP ak
.setOn ClickListener
. children
Ġi k
+ (
l ag
Ġdis k
Ġcont rovers
"> &
as p
Ġw ie
ĠAustral ian
ĠYou Tube
At tr
cont ains
du ce
ĠM att
at ern
Ġvol unte
Ġnew sp
V P
olt ip
Ġde legate
_m eta
Ġaccur ate
ĠEx ample
% ,
ĠD aily
Ġc abin
ĠS W
Ġlim its
k ip
Ġar my
Ġend ing
Ġb oss
ĠD ialog
Al so
="# "
ord an
row se
- min
Ġ" &
_ loc
U X
Ġdevelop ers
Ġaccur acy
Ġmaint enance
Ġhe av
Ġfil ters
.T oolStrip
Ġn arr
ĠE mp
ORD ER
ĠM obile
.S erial
.out put
.c ol
M aterial
um a
Ġconsum ers
sh ift
Ġp ued
Ġmin i
c ollection
Ġk an
.c enter
H istory
Ġben ch
() );
itor ies
Ġcrow d
_c all
Ġpow ers
- E
Ġdis miss
Ġtalk s
ĠCh annel
for ward
_ control
/s rc
i est
**************** ********
Ġbet a
(c olor
_O BJECT
ĠA pi
Ġeffect ively
C amera
s d
uss y
D ict
ĠE ffect
ib ilities
Ġreturn ing
ĠF ar
Ġ' ')
Ġmod ules
il ation
Ġ( %
TR GL
Ġst orm
on na
ĠEX P
Ġs pons
Ġdis pl
ĠĠĠĠĠĠĠĠĠĠĠĠĠĠĠĠĠĠĠĠĠĠĠĠĠĠĠĠĠĠĠĠ ĠĠĠĠĠĠĠĠĠĠĠĠĠ
f all
å Į
ign Key
_ US
et rics
Ġhand les
T L
_ amount
ow a
br and
ĠT ool
Ġus ual
. Z
cre ment
ad ium
st ock
Ġserv ing
ĠB on
Ġline ar
ĠT arget
ĠR adio
H L
Sh ader
om atic
ag ues
in ity
d iff
_ iterator
qu ot
Ġ ,Ċ
c allback
Ġsympt oms
[ _
ĠB ul
ĠF eb
und o
_ account
Ġtyp edef
Ð¸ Ñģ
tr as
User Id
ĠP enn
ĠSup reme
} >
user Id
ĠK im
Ġg a
Ġart ists
å ¸
ĠAb stract
ok emon
Ġh am
o val
Ġch a
at en
å Ĩ
F ixed
Ġvul ner
ĠParam eters
qu antity
.C lear
Servlet Request
Ġy a
Ġsou l
trans action
Ġsol o
Ġp airs
æ Ķ
ĠG re
_ word
ĠC C
Ġg i
z ie
Ġsched uled
rot ation
gy pt
ul ous
:: _
ĠE ll
< !
ĉĉ ĠĠ
l p
ah a
C opyright
Ġdr am
Ġdi agram
ĠM em
Ġg arden
Com p
Ġattempt s
uff ix
> ()
Ġphil osoph
_re l
å ¼
Ġs v
.se cond
ant o
.J son
ĠTe le
_ local
_s end
Ġas pects
ì Ĺ
IB LE
Ġr ail
Ġwid ely
ash ed
i ar
in f
up per
d jango
_result s
iss ing
Ġequ ivalent
OUN D
Ġt y
Ġpotential ly
Advertis ement
ĠRec ord
resent ation
_w idget
ound ing
Ġrelig ion
Ġcons c
ĠL im
. am
H tml
Ġ' :
P ATH
_s pec
ort ed
id ades
_sh ape
Ġkeep s
.S ave
ĠL oc
or i
ĠT EST
unic ip
Ġreg ions
Ġbelie ves
/ en
pos ite
{ '
pre pare
_ const
s ample
ĠWill iams
Ġstr t
_ Get
ĠAnd rew
. active
Ġl ayers
Visual Style
az y
ĠK n
Ġac id
ĠAs ia
Ġex cess
ĉm y
Ġkey board
ens us
Ġcre w
Ġmiss ed
m aster
ĠW ild
Ġnew ly
Ġwin ner
Ġst ub
ic ode
.m ove
D omain
ĠS ar
Ġfore st
LE D
claim er
.ex it
ĠW indow
Ġres istance
ĠC HECK
(" -
ĠR yan
Ġp ipe
Ġco ast
DE F
// !
_ off
ex it
Ġult imately
imit ive
ĠKe ep
Ġhistor ical
Ġany way
ĠJack son
ock er
ER N
ĠU INT
y ntax
ER Y
is ms
Ġc n
Ġocc urs
Ġ; ;
Text View
A E
/ img
Ġy esterday
- default
Ġt iny
Ġpro c
Ġal ive
ĠRE G
. th
ear ing
.get Logger
< link
_ login
F older
ab c
lyph icon
Ð½ Ð¾
Ġnot iced
od igo
Ġed ition
im ator
. Enabled
.parse Int
Ġy ards
ĉĉĉĉĉĉĉĉ ĉĉĉĉ
Ġver bose
Ð» Ñı
_B Y
.log in
.* ;Ċ
ĠM id
Ã© es
Ġg lo
Ġbuild ings
Ġz e
ĠI ter
Ġt ube
ĠP ot
\ M
< th
br idge
ĠS cript
ĠM odule
Ġv acc
Ġinstall ation
v y
VisualStyle BackColor
ĠS M
.t otal
b at
Ġfind s
Ġat mos
Sub view
iz ard
Ġrepl acement
lic ated
ap is
Ġlog ged
ĠLe ft
G ui
_ Type
t m
P ad
Ġhouse hold
Ġre le
Ġpropos al
_CL ASS
:: ::
Ġinf rastructure
In ject
/ html
Ġad s
iz za
Ġm g
ctr ine
% Ċ
< html
- image
Ġatt orney
< m
(' ,
Ġcan n
Ġprint ln
o ose
Ġy ellow
.ex p
p ayment
Ġtable View
aw ay
Ġopp osition
ĠAg ain
ĠH andle
Ġex clusive
in ar
Ã© r
Ð¾Ð ±
ĠC ODE
emp orary
Ġre act
pi pe
c z
. activity
Ġlarg ely
Ġdis s
ax y
es is
ĠR en
Ġc orn
.Use VisualStyleBackColor
d ays
Ġfr uit
In sert
_ enc
E st
_de c
ĠL uc
ĠÃ¼ ber
param eters
P ERT
ex press
_pro file
Un known
Ġrev olution
.add ress
_re quire
Ġun iform
ĠP ack
l ar
ĠU ITableView
Ġdep ends
Valid ation
conf irm
O wner
Ġt rib
h et
ĠI de
ans as
L anguage
u et
ĠP o
ĠSte ve
Ġcont est
_DE FAULT
Ġapparent ly
RE EN
Ġfrequ ently
Ġtrad ition
ocol ate
S I
ĠArg ument
F ocus
ert e
ĠL ayout
Ġd x
Ġgener ator
ĠW ait
P olicy
l ights
.Ex ecute
P y
Ġbed room
ed a
ra id
ĉs ize
Ġan cient
Ġp ump
Ġd w
Ġ(! (
Ġspec ify
( status
ĠF BI
.ex ception
Ġrem ark
ly mp
ant ee
Up load
ern et
é ¡
in ent
ĠR ender
d m
ĠM emory
r ich
ĠT ools
Ġk ne
Ġper m
b ad
Ġd inner
.res et
Ġj Label
Fe ature
.S ervice
Ġ( {Ċ
Ġre ferred
.class List
Ġinit With
ĠText View
Ġne ither
Ġcount y
Ġ" {
ç §
Ġt ack
class Name
ĠUS ER
Ġre new
` `
get Name
Ġb rown
Err ors
ert o
Ġsust ain
S O
let es
ĠIn valid
Ġen emies
un ge
Ġexist ence
err a
Ċ ĠĠĊ
utor ial
# a
p ay
char ge
ĠI re
ate st
Ġexp los
Ġf ired
N ER
ĠT y
ic ion
U ri
Ġobvious ly
ĠC olum
Ġ' +
ĠDe vice
- related
_ ARG
Ġv or
ĠLess er
_O P
Serial izer
Ġup grade
L ight
Ġc odes
++ ;čĊ
Ġwrit es
fo od
ĠÃ© t
@ section
Ġtrack s
Ġserious ly
ch t
(size of
Ġimmedi ate
Ġscient ists
Ġ{ $
_ ne
.Anchor Styles
Ġaccom mod
ĠHar ry
Ġs ight
ĠPale st
ersist ent
Ġ Ñĥ
- input
Ġco ordinates
Â ·
W elcome
.con f
Ġgre w
Ġb old
ĠC PU
(m y
Ġperfect ly
Ġmom ents
ĠM ovie
- data
yst al
_W IDTH
ĠS creen
æ Ŀ
Ġdis ap
Ġredu ction
.Get Component
_M ODULE
Ġgener ic
Ġd y
all er
Ġc url
ĠB ody
Ġb anks
, t
av g
Ġev il
Ġmanufact urer
Ġrece iver
Column s
Ġing redients
ĉ out
qu es
.L oad
Ġslow ly
ĠT own
ĠC ell
_n ormal
_p refix
ĠAl ert
(" {
Ã¤ r
âĢľ The
ĠM D
Ġcour ses
ath an
é Ļ
oc c
ĠS ER
es ign
Add r
= ['
(" ./
] }
.f ont
ĠInst agram
ĠB order
od a
Ġh all
Ġr um
_b it
Ġs aving
_d own
R andom
_reg ister
( Context
Ġoppos ite
R oom
Y ES
Ð°Ð½ Ð¸
Ġenjoy ed
_r un
C lear
âĢ ĺ
ĠF ord
on ic
ost en
"] )
_ auth
// čĊ
Ġsuff icient
LE S
Ġph en
Ġo h
_c sv
Ġrout ine
.Are Equal
ay lor
Ġb asket
_COM M
rypt ed
S im
ĠSh op
Ġstud io
at os
( W
[ string
Ã¤ t
og a
Ġsh r
Ġs ick
An other
Ġdo ors
_N E
ĠTH REE
. order
raz il
Ġmap s
_TR UE
trans late
Ġnear by
Ġn ach
LO AT
b atch
Ġl ux
ash es
ang ers
âĢ¦ âĢ¦
_E VENT
_ UP
Ġact s
in v
_M ETHOD
cc ion
Ġret ain
ut ch
ĠÐ ±
Ġknow ing
Ġrepresent ing
N OT
p ng
Con tract
Ġtr ick
ĠE dition
uplic ate
Ġcontrol led
c fg
j avascript
Ġmil k
Wh ite
Se quence
aw a
Ġdiscuss ed
ĠB ush
ĠY ES
.f actory
t ags
Ġt act
Ġs id
$ $
ĠE num
Ġfr ames
} );
Ġreg ul
'] ;čĊ
Reg ion
ff f
Ġc ro
( com
=" +
St udent
Ġdis appoint
RES ULT
Count er
Ġbut ter
ĠH a
ĠD igital
Ġb id
"> {{
ing ers
ĠC ountry
_t pl
"] )Ċ
/ k
d ating
: #
ĠD ATA
yn chron
_b ody
olly wood
Ġval or
ip ient
o ft
UB L
doc s
Ġsyn chron
Ġform ed
ru ption
Ġlist a
Request Mapping
Ġvill age
Ġkn ock
oc s
" {
_fl ags
Ġtrans actions
Ġhab it
ĠJ e
ed en
Ġa ircraft
ir k
ĠA B
Ġfair ly
. inter
.A ct
Ġinstr ument
remove Class
.com mand
Ñ ī
ĉm em
( min
Ġo t
Ġcol le
= s
time out
Ġid s
ĠM atch
ij n
z ero
Ġnetwork s
.g ov
Ġint el
Ġsection s
out ine
(c md
(d ir
ĠLI ABILITY
ĠB log
Ġbr idge
ĠC V
con vert
Ġ" )Ċ
ĠB ern
_P O
e val
( set
to ol
Ġpay ments
Beh aviour
Ġcon crete
Ġel ig
Ġacc eler
Ġh ole
_ o
TE GER
Ġgraph ics
O wn
Form atter
on der
Ġpack ages
/ a
ĠK now
Or Default
Ġdut y
W ait
Ð½ Ð°
_rec ord
[ t
M esh
Ġon going
.be ans
Ġt an
Ġinter pret
ast ers
QU AL
Ġleg s
\ Request
- file
_m utex
ĠS aint
// #
Ġpro hib
( info
: =
lin ux
Ġb lo
ot ic
ĉf inal
_ex p
ĠSt op
ap ing
(s aved
_p ush
Ġe ase
_F R
pons ive
str cmp
: ĊĊĊĊ
ä» ¶
ol i
Ġextrem e
Ġprof essor
Im ages
.IO Exception
Ġaddress es
plement ed
Ġincor por
Ġuse Effect
_O F
ĠD a
n ombre
IR ST
Ġdisc rim
Ġcomp ens
greg ate
anc ell
ach es
ĠC riteria
$ result
D estroy
Ġsecond ary
W atch
ĠS em
ĠMc C
Ġacad emic
U pper
:: ~
ut ral
ĠD og
ad ed
Valid ator
Ġder ived
Ġset Timeout
ĠK en
Ġtyp ical
ĠB ob
Ġb ounds
ĠSe ason
Ġc razy
ĠĠĠĠĠĠĠĠĠĠĠĠĠĠĠĠĠĠĠĠĠĠĠĠĠĠĠĠĠĠĠĠ ĠĠĠĠĠĠĠĠĠĠ
-r outer
itt est
ĠM ir
Ġemot ional
, v
c n
/ st
å ½
on om
Ġdecl ared
> .
ail ing
Ġ/* <<<
Ġnorm ally
(M e
ev in
lik ely
Ġpoint ed
ĠSt ack
Ġw alls
. Vector
me an
] ]Ċ
Ġlist ening
ad v
Ġsw ap
IF T
Ø ª
. argv
ul s
< option
not ations
Ġemail s
ĠU kr
ast a
ĠTh us
ĠSt one
Ġappe al
. âĢĻ
Ġreg ulations
Pre ferences
ĠPh one
ul f
ĠD R
Ġtechn ologies
Ġpar agraph
Ġnecess arily
.e ach
< float
res a
Ġunder st
Ġf inger
press ed
-b y
if fer
w atch
ĠB a
A IM
Ġwe ights
ĠR on
') }}
[ self
-------- --Ċ
per iment
Ġto String
x ic
ĠC amera
! ĊĊĊĊ
aur ant
P refix
Ġinstit utions
: int
Ġex posure
p attern
ĠLin ux
.n umber
red ient
Argument Exception
ĠCh ief
" },
Ġelect ronic
r ong
er d
sp Net
ra it
/ ',
ĠOh io
Cont rollers
Ġcontin uing
ĠT emplate
ĠE th
s z
/ env
En v
% .
art ers
) ((
ĠT ABLE
ĠÃ ®
per ature
pro gress
P res
ê °
im plementation
Ġb ien
Ġstre ets
_M SG
New s
## #
: /
Ġcut ting
x B
ress ed
_EN ABLE
l ab
Ġca using
] ));Ċ
b ra
x FFFF
il ly
plet ion
w ill
_b ar
Ġstruct ures
ĠI mp
Û Į
Ġ< >
Ġ ----------------
_B UFFER
.d ir
Ġpl ain
Ġpe er
g g
oint s
Ġsomew hat
Ġw et
Ġemploy ment
Ġtick ets
ir ms
Ġt uple
s is
$ sql
r ig
Ġcon version
Ġg es
Ġconfig ure
eg r
ĠC a
Ġ__ ('
ou ston
.t oken
Bl ack
Ġmag azine
A W
. IN
os ing
Ġbro ke
ĠC ru
DE LETE
Ġdestroy ed
(M ath
Ġappro val
-d om
ĠI II
table View
Ġdesign s
Ġcrush ing
Ġcons ent
dir name
om p
Ġc rypt
? (
or ough
. o
ĉ list
ams ung
."" "Ċ
err ing
G oogle
_p air
_IN IT
rem arks
Ġg ear
F ill
l ife
} ")Ċ
Ġsuit able
Ġsurpr ised
_RE QUEST
Ġman ifest
att en
Ġfr ustr
ov ement
.c lick
Ġi i
Ġexp ansion
ig s
P arse
.Reg ular
R ob
_l ayout
ì ł
Ġtrans lation
ĠBe aut
B est
_C OLOR
< label
Ġliqu id
IT S
Ġpro d
Ġoper ate
UI Kit
Ġn atur
arg ument
_d etail
ĠCent re
Ġ" --
Ġ}} "
lo cale
.t v
_se q
Ġup coming
Ch art
ĠDiv ision
Ġclin ical
Com pany
S epar
l as
ĠH un
: s
Ġhead ing
Ð¾Ð ³
Ġ" ");Ċ
[ id
b ia
Ġst retch
ic ide
Ġre produ
.pro ject
leg end
end ers
Ġrespons es
Ġon t
rit ical
Ġref uge
ĠL i
Ġ: ĊĊ
ĠTh ree
.cont roller
_IN DEX
_F OR
\Model s
j ax
ĉex it
Ġâ ĸ
Ġc overs
ĉ y
- .
IND OW
Ġfail s
in cludes
Ġf ault
Ġl y
Ã± o
.s lice
ILE D
ĠP ur
ĠAs ian
_b atch
.M ax
v l
ĠCOPY RIGHT
Ġg iant
ĠMan ual
ĠC opy
Class Name
He alth
C ursor
IB Outlet
Ġt we
æ ³
_label s
Ġcol lected
Ġfurn iture
Ġdeal ing
Control s
ĠHot el
ck s
Ġch ose
âĶ Ģ
od d
S R
Ù Ĭ
ì Ħ
Ġacc ord
ĠM ove
ĠM ode
ĠM ock
Ġthread s
++ ++
ĠO ptions
Ref resh
ĠD id
'] ->
u cc
_ch annel
. abs
Ġ{ },Ċ
ĠW al
er ior
Ġmain ly
ĠDr iver
NotFound Exception
Ġcount s
e am
Ġ& =
Q uestion
ĠA li
Ġany more
d etail
t ail
Ġm ile
ĠF air
Ġs orry
Ġsurround ing
Ġad m
De v
Ġmari juana
ĠS ound
ĠA sh
F D
Te am
. port
Ġ[ ]ĊĊ
ub ble
Ġas c
Ġint ention
A cc
ch i
ust ers
Ġins pired
se g
CL U
Ġman ip
M etadata
Con nect
ĠB eh
Ġfind ings
Ġas sembly
w orld
Ġrem ained
Ġu id
( .
Ġm x
Lo op
ĊĊĊĊ Ċ
Ġfant astic
wh o
ak i
ĠB asic
ĠY et
ĠUs ers
ik ip
Ġhead s
ĠMich igan
_ it
ĠTor onto
Ġrec ording
Ġsub mitted
_var iable
medi ate
.graph ics
Ġst ood
Ġre ar
vel ocity
_M ESSAGE
ĠĠĠĠĠĠĠĠĠĠĠĠĠĠĠĠĠĠĠĠĠĠĠĠĠĠĠĠĠĠĠĠ ĠĠĠĠĠĠĠĠĠĠĠĠĠĠĠĠĠĠĠĠĠĠĠĠĠĠĠĠĠĠĠĠĠĠĠĠĠĠĠĠĠĠĠ
ro les
ĠT our
_ year
end ment
amp s
ĠIre land
m al
Ġyoung er
Ġstrugg le
Ġc able
ĠSD L
(' -
an es
ĠNe ed
.R ow
P ol
ĠP H
_s cript
ag em
ĠB as
_s pace
. loc
: i
ad r
Ġengine ering
it en
) &
Ġu k
ĠL ittle
_C OUNT
x A
Array List
æ į
Ġ" ")Ċ
An chor
Ġh ang
t witter
Ġcompet itive
.s rc
ãģ Ĺ
Ġtrans late
ĠCre ates
ook s
ĠR oll
'' 'Ċ
/ sh
s ome
Enc oding
.res olve
Ġdesign er
ĠSt orage
Ġz a
ĠN ever
Ġsomew here
Ġbox es
.s ource
Ġpy game
Ġgrow n
.t w
() ),Ċ
', ['
Ġoppon ent
(s rc
.l ayer
AP P
ĠAct iv
Ġguest s
ĠVAL UES
};ĊĊ Ċ
.n ative
Ġamount s
. RE
Ġcl one
Ġwer en
Ġ" <<
_ ac
Ġbreak ing
Ġreli able
.P OST
ĠSk y
Ġ' &
Ġsaved InstanceState
ast ing
ill ion
com ments
ult y
.m enu
/ config
Ġ ĊĊĊ
T ODO
Ġpurch ased
_c or
ĉ auto
Compat Activity
com plete
_ graph
is odes
Ġsitu ations
ĠH or
Re ceive
âĢľ We
Ġent ities
.assert Equals
Ð¾Ð º
ĠS ans
v ince
rom pt
= Ċ
Ġ/ .
.Se lect
yl v
Ġb att
A udio
Ġincreasing ly
.B undle
Ġexpl ains
the ast
. offset
Ġh al
Ġtechn ique
_l imit
Ġdraw n
AY ER
Ġfeature d
yy yy
at in
ph en
ach el
! \
l ower
ĠG R
Ġp ag
ĠP arse
Ġt ou
ä¸ Ģ
D istance
Index Path
Ġh ell
s im
UT TON
Us age
elen ium
ĠF all
Ġ" .$
ĠM u
Ġcr uc
Ġs ont
REF IX
Ġinter ior
ĠO lymp
.Auto Scale
par a
Axis Alignment
Ġr iver
D to
Ġwith draw
Re act
- class
b efore
_ alloc
Cont ents
ĠW as
I CT
Ġform ula
Ġindic ates
ĠĠĠĠ ĊĊ
_st ore
it ting
ĠIt alian
_S et
_re port
Ġp id
_V ER
Ġw ins
ĠCl oud
") {Ċ
ch ester
Ġden ied
Ġw ird
ĠSte p
Ġinvest ors
b old
_d isplay
ou ver
or er
Res et
Ġsurg ery
Ġstrateg ies
/m aterial
_ unit
Ġc ouncil
.P er
ĠâĢ ŀ
Ġre form
F ramework
Ġlist ing
_b tn
Ġb is
% d
eg as
Ġsudden ly
_S ER
Ġa o
_d irectory
f as
Ġprem ium
Ġtrack ing
ĠB L
Ġm ature
Ġbath room
Ġ'/ '
ĠÄ ĳ
Per formed
Ġsold iers
arn ings
Ġwalk ed
- con
b ottom
Ġsurpr ising
Ġg ene
Us uario
.DE FAULT
ĠM IT
C ODE
ĠE gypt
p icker
ys ql
AT URE
d etails
ĠCon ference
In formation
ĠM ail
-d own
r aries
b ro
Ġsubject s
Ġ' *
è¯ ·
or ient
: @
ver bose
E F
Ġto ler
eng ers
Ġend point
Ġstr ange
Ġcol on
Ġpre ferred
de p
ĠE V
ARR AY
Ġw he
Ġp up
_n odes
Ġtalk ed
Ġinstit ution
db c
Ġex posed
te en
ĠFr ont
T T
_N ONE
\/ \/
pro gram
Ġencour age
. `
sh ire
ĠIsl am
e en
N I
' "
.W idth
Ġlik ed
Ġ{ ...
ĠSystem s
Ġvot re
Ġmanufact uring
Con verter
ĠIn f
ì ļ
D TO
Ġin ches
Ġ à¤
Ã ¹
ĠChar les
B U
")) ;ĊĊ
ĠL abor
un n
Ġest im
m obile
ĠL earn
_C ALL
â Ħ
Ġind ices
Ġt ub
ikip edia
C ost
row able
ë ¡
g age
Ġfunction ality
uzz le
em os
.l ib
Ġd ass
ÐµÐ º
enn a
Ġsh ots
Ġrest ore
/ D
For Key
], [
al ias
l int
.st ream
æ ł
_FORM AT
Ġsil ver
.re pository
Ġlegis l
.B order
_fe atures
Per mission
Ġhous es
ĠW ars
_COM P
Ġinj uries
Ġconstant ly
fl utter
EN U
ĠCon f
Ġrecogn ized
Ġpract ical
Ġde cent
B J
] );
ast y
ĠAct ivity
-m ode
Ġsl ide
.IsNullOr Empty
ĠY OU
P ower
ind ices
Ġqual ified
Ġthrow n
h ello
ĠN ick
l ah
as sembly
ĠSm all
old ing
Sh ould
ĠSil ver
(saved InstanceState
Ġtog gle
.N ot
C trl
: nil
ĠCont inue
ĠB oot
æ ī
ĠM ur
d on
ĠF A
S napshot
Ġassoci ation
fo x
, a
az ione
] )čĊ
CT YPE
Ġf ade
ĠD ar
.n avigation
Ġl uck
SC RI
ĠDe ad
Ġterm inal
_LE NGTH
Ġeff iciency
Ġun w
Ġn arrow
iment o
( Color
ĠSe a
_ area
, A
_ opt
ĠHill ary
.t ask
ĠJ ac
ast ed
ĠAd am
ĠIl legal
Ġsearch ing
Instance Of
J ava
ĠForm at
Ġreal ized
ĠChild ren
Ġk il
(f rame
âĢĿ .ĊĊ
Ġscen ario
"] );Ċ
Ġincred ible
li x
IO Exception
ĠQ uest
il ty
Ġun lock
â Ĥ¬
Ġre ferences
ĠV ert
B inding
eg ative
Ġwr ap
.d atabase
( content
B uf
ĠTr ad
ĠA ud
tr ace
.m ock
Ġther apy
ĉ L
.To Int
ĠKing dom
B us
ha ust
"" "ĊĊ
( end
.draw able
[ ];Ċ
ĠH ospital
Ġph arm
---- -
ĠA G
Ã© d
> ");Ċ
Ġw allet
at able
) $
Ġmonth ly
Ġdi agnostic
S ymbol
Ġiter ator
un finished
Ġimm igration
s r
RO W
(g ame
Ġclo thes
ĠU nt
Ġactiv ation
_C on
.h ash
Ġinitial ly
.H ash
Ġcut s
f ound
ĠSt ory
ÑĨ Ð¸
ac ao
_T YP
pro to
est r
-p age
ah r
Ġincor rect
ĠJose ph
TextBox Column
_st yle
ĠD aniel
s heet
Ġl iv
l ined
Ġr a
R untime
_ empty
sl ug
_ struct
ë Ĭ
m u
Ġper mitted
Ġreg ional
Ġsob re
ĠS uch
Ġ[ _
Ġro of
.Al ignment
t imes
.m sg
Ġche st
ĠT ab
Ġest a
Ã¤ n
Ġsubs cription
( command
s pecial
Ġme al
") :Ċ
_ ctx
Ġclos ely
et ry
- be
ad el
ĠR am
ig est
ĠSpan ish
Ġcommit ment
Ġw ake
* >(
P HP
_ {
ck er
< List
_n ull
ĠRes erved
Ġin her
.Column s
.A spNet
_IN VALID
ĠParam eter
Ġex pr
} {
Cell Style
Ġval uable
Ġfun ny
In v
Ġst able
* t
Ġp ill
pl iers
ĠC SS
ĠCon dition
ĠS peed
ublish er
Ġoff ensive
ce st
ic as
Ġsp ark
ĠPro te
set up
IF Y
ĠT ax
Wh o
F amily
- for
. uk
Ġf asc
sv g
") ).
Ġbirth day
âĸ Ī
ve h
el led
Ġimport s
ĠIsl amic
T A
ĠSt an
we ather
Ġsus pect
e ature
enn es
W M
.m inecraft
av id
è ½
.se curity
in os
G ood
Ġm arch
Ġposs ess
us uario
Con s
am ber
ched uler
Ġhor se
ç ½
(b ody
ĠTrans form
_de code
.s vg
Ġf oo
Ġd ella
ext ends
am er
Ġprocess ed
ĠH arr
ĠA I
Ġk o
CH AR
( %
Ġt ap
({ '
c roll
D OM
Ġte a
Ġre in
Ġworld wide
_f n
sh a
Ġb ir
Ã§ Ãµes
="# ">
Ġrepresent ed
ill er
(ex pected
Ġd ance
Ġvisit ors
.con cat
-b it
UR RE
ĠR og
v p
ip h
ĠL LC
it led
iam i
C oll
_re al
_sh ow
_f older
Ġd ar
ĠĠĠĠĠĠĠĠĠĠĠĠĠĠĠĠĠĠĠĠĠĠĠĠĠĠĠĠĠĠĠĠ ĠĠĠĠĠĠĠĠĠĠĠĠĠĠĠĠĠĠĠĠĠĠĠĠĠĠĠĠĠĠĠ
Ġl atter
arch y
Ġb ow
Ġout come
ĠPost ed
Ġris ks
ĠThere fore
Ġowners hip
Ġpar allel
Ġp ending
ge ometry
Ġrecogn ize
ST EM
ĠC P
Ġimm igr
IT LE
ĠĠĠĠ ĉĉ
conn ected
Ġsm ile
(d ocument
\ Component
vert ical
Ġconsum ption
Ġsh oes
. impl
un ks
. ";Ċ
Ġfood s
_ );Ċ
.assert True
Ġp ipeline
Ġcollection s
Ġearn ed
ĠC ert
Ġpartners hip
( action
Ġc d
ĠV ery
Option al
Ġscre ens
Ġtit les
ener ator
Ġab andon
k ind
IL TER
Ġclos ing
lic a
_ inter
Ġcamp us
set ting
S prite
ãģ ¯
_re ply
To List
: \/\/
ed e
Ġfol ks
Ġbo at
( argv
Ġperman ent
Ġcarry ing
Ġconserv ative
import ant
. img
ĠIm m
Ġdim ensions
al and
s ingle
Ex it
-------- --
ari ant
tern al
Se conds
ĠIt aly
ot lin
.Res ume
=' "
) ==
cept or
Ġs ca
/m ain
Sec urity
_d at
Ġlet s
Ġa qu
Ġwhen ever
b erry
Ġact ing
ant i
p d
& gt
æ Ń
Z one
T oday
! .
To Props
ab is
it able
Ġg al
] {
iz ona
Ġin contri
N ET
/// Ċ
[ in
_s ave
Ġex em
ĠK enn
Ġev olution
var s
_st ats
- only
ĠColor ado
Ġwatch ed
b our
Ġsever e
Ġprofession als
port ion
Ġguar ante
Ð ³
Ġpush ed
ĠG i
ï ½
Ġt um
ĠA z
ĠEdge Insets
")) ;čĊ
is se
. ac
Set ting
Ġapprec iate
ĠValue Error
Ġsur ve
ĠR ole
. Inter
plot lib
j et
d am
Ġplatform s
te le
UT O
ĠInt ernal
+ :
} ;čĊ
Gener al
\ Entity
Ġlawy er
qu iv
ĠPost s
is o
Ġacc um
ob e
Ġmark s
Ġ] ;ĊĊ
ĉ text
.s uccess
cur r
as a
ĠĠĠĠĠĠĠĠĠĠĠĠĠĠĠĠĠĠĠĠĠĠĠĠĠĠĠĠĠĠĠĠ ĠĠĠĠĠĠĠĠĠĠĠĠ
Ġth in
_ over
are st
ĠO s
( address
Ġvel ocity
Ġ[] ;ĊĊ
=" ../../
ĠPr iv
b ow
Ġguar antee
% ĊĊ
Ġeval uate
.LE NGTH
Ġin ventory
q a
_de bug
.On ClickListener
Ġl ies
Ġassess ment
dat etime
.background Color
Ġ*/ čĊčĊ
ra f
un wrap
ĠF oot
Ġnot ify
Ġlow est
DO CTYPE
Ġl anguages
ex tra
- back
Ġein en
tem plates
_p ass
ĠM ust
Ġest Ã¡
_c ore
ĠSc ot
A I
Ġb ias
ations hip
Con stant
Ġprogram ming
In s
uspend Layout
ĠPRO VID
ant es
Ġsh irt
in ated
. OK
[ a
Ġthink s
? ĊĊĊĊ
Ġregard less
ĠMag ic
ul ating
ĉ class
add Group
RE ATE
ĠS U
Ġsim pl
c opyright
Ġb unch
Ġun iverse
ĠE rr
Ġpresent ation
c ategories
Ġatt ach
.s ign
_A C
Ġdisc ipl
Ġregular ly
Ġprim arily
ink s
[ [
.r and
.sh ould
ownt own
=" '
Ġs ans
Ġsupport ers
se quence
G O
. .ĊĊ
ĠS pr
Ġcare fully
U IColor
dest roy
Ġtod os
ĠOR DER
ott ed
Ġd ont
aud i
_ player
g re
ĠO il
< body
_st ack
.P adding
ĠProduct s
Ġpriv ile
Ġinj ured
ĠF urther
Ġal ias
.Resume Layout
_LE N
Ġs es
'] ;ĊĊ
cre ens
Ġdirect ed
.S uspendLayout
od ge
.A t
mark s
ĠUn ivers
ert s
ĠE sc
Ġnav bar
Ġutil ity
agnost ics
Ġin ject
ĠD NA
Ġ" ,"
am ar
Ġe u
Ġrestaur ants
_p ut
ut ers
Tool Strip
t w
ist ro
Ġz oom
Ġleg it
pec ific
ĠC ome
Ġlocal Storage
Ġabs or
.P anel
ĠDesign er
Ġo w
IC AL
_ uri
(f ield
Ġsup erv
Ex ists
Ġrespect ively
ĠSt and
Con f
uss ian
Ġar c
Ġ nd
uck s
Ġre str
Ġseason s
ĠCh apter
ĠSw itch
p ic
Ġh i
load ed
Ġfl uid
-b tn
Ġrun time
. it
B N
Op acity
as ant
ry ption
-n ative
Ġta ught
å ¯
ag ment
Ġm ul
Reg istry
_ grid
ĠBro ok
: Set
Ġm ongoose
AM ES
inner HTML
Ġs oci
ĠInt el
get Id
C md
Ġaccess ible
r ames
le ton
Ġ__ (
ĉ delete
ĠS quare
" ĊĊĊ
Ġbu cket
avor ite
ĠB reak
++ ]
Ġbr ush
Ġt ensor
/ http
T ile
Ġfunction al
Ġ" *
wh el
Ġt ent
ĠChar acter
Ġse es
. ST
B ig
Ġext ern
Url s
)) )),
ĠJ r
.B uilder
. ;
n l
_ Init
ĠH ER
Å¼ e
mys qli
_ icon
v an
Ġfeel ings
Ġle an
Ġhop ing
T V
="<? =
Ġcur ve
_st d
_L INE
d st
Ġmor al
em es
og y
Ġur ban
Ġas ide
Ġedit ing
AD D
Se cond
Tr ack
Ġvot ing
Ġhon or
. ',
ell en
Ch at
Ġimpro vement
'] ĊĊ
ł ģ
Ġpars ed
ĠĠĠĠĠĠĠĠĠ Ċ
Ġla zy
Ġfall ing
Serial ize
ĠP a
_ gr
Ġfore ver
. white
. Query
B ed
ĠD u
Ġres ume
Ġp apers
ĠIn it
Ġsuffer ing
âĢ ĭ
Ġdeclar ations
() -
Ġexec uted
ĠH ol
.b lock
ãĥ ³
S K
Ġst uck
ĠL ock
incip al
Null able
Ġs essions
un i
Ġcou p
app ro
gh an
_p ool
ĉ id
Ġsl ots
Ġmedic ine
Ġgl ad
ĠMono Behaviour
at re
Ġ$ ('
meric an
ag g
Ġk ann
_con nect
Ġbr ands
Ġs ke
Ġdig it
< n
Ġback up
Ġperson ally
.P roperty
.com mit
Ġc ry
_count er
Ġm alloc
Ġgr an
ĠD rop
pl atform
red entials
ink ing
ĠU IL
ub s
Ġm l
less ly
Gener ated
ere otype
Ġb at
Layout Panel
LO T
");čĊ čĊ
Ġmus cle
Ġcert ificate
AND LE
Ġhard er
Ġp ixels
) ",Ċ
. Header
Ġdevelop er
ĠL as
eg an
. <
Ġexpl ode
Ġparticip ate
P attern
(t able
ĠT EXT
const ants
x D
th ew
}, ĊĊ
ãģ ®
_d es
Ġsub str
ĠSm art
Ġsc ala
g ent
-b ar
ession al
um bs
.ex ec
' \
T K
un ist
pro of
c ial
pro c
={ "
.h ref
=$ (
Ġl unch
isc al
ĠEn try
Ġout door
sem ble
Ġessential ly
/ G
[] )
% "
st en
USE D
Ġd ust
å °
ĉ ĊĊ
Ġret ire
Ġf ib
Al though
Ġlo ves
Ġread s
yc les
ĠH el
_ uint
Ġ' .$
_in itial
N amed
Ġfundament al
AD ING
Ġto w
ĠA DD
ĠAcad emy
: String
Ġcompreh ensive
.s cal
ĠM eta
M essages
.annot ations
\ Response
Ġacknow led
ĠA RE
] ==
Ġclean ing
è ¾
Ent ities
ĠS ales
ĠW is
.ext end
all enge
Ġg aming
$ query
IC ES
ET CH
H orizontal
qu ential
B ACK
de velop
is or
(c ode
- K
_P IN
requ ency
ĠQ uestion
_ container
_mod ules
ĠJer sey
_d iff
. el
Ġ* ((
c nt
ĠS a
C PP
in ite
Ġun us
- white
et ary
Ġinvol ving
Ġ? >čĊ
b est
all as
ent ed
ĠĠĠĠĠĠĠĠĠĠĠĠĠĠĠĠ ĠĠĠĠĠĠĠĠĊ
_con nection
Ġrep o
en abled
Ð°Ð º
Ġsh a
Ġmembers hip
Status Code
in ating
_s m
_c ustom
_ weight
Ġc ss
St at
_ env
link s
TR L
ĠH it
, r
up id
Ġop ens
Ġg ent
_v is
Ġj oy
< w
_c ost
ĠPy Object
ren ce
ĠGeorg ia
ĠBro ad
m ma
â Ĥ
p f
Ġ" \"
Ġ( &
om o
Ġliter ally
Ī ĺ
met ric
Ġb ars
z ed
(w indow
ĠIsrael i
Ġform al
ident ifier
.d ao
ĠDe ath
% ;Ċ
Ġdecl are
ar ms
RE AM
PERT Y
Ġconsequ ences
to ols
Pe ople
ĠWh ich
> ();čĊ
.de code
_A CT
Button s
.f loat
.F irst
ë ¥
ĠPol it
ĠX CT
T ags
ĠCG Float
= str
Ġle af
- check
ĠI ss
.s ystem
log out
ach t
Ang le
s in
ch art
INT ER
ĠN UM
B asic
.P roperties
ä¸ Ń
_ change
ĠB razil
Ab stract
Ġ: +:
_ use
Ð° Ð»
ĠL y
IB UT
Ġout er
Ġ-- >čĊ
Ġrel ief
l ap
qu er
_p arent
he ap
LO SE
Ġcomb ine
ĠR ose
ow ers
Ġproced ures
ĠS ort
an im
var iant
eh icle
Ġsign ing
Pr imary
c urrency
Ġsex e
o en
th eta
em an
Ġimpress ive
(' _
ĉ U
ĠText Style
_c nt
Ġs lice
(' :
Ġunderst ood
H is
Ġinform ed
Ġn ick
(T AG
h d
Ġelection s
est ure
ĠS anta
ĠCo ast
.p df
inc iple
.cl one
b orn
ut a
Ġl icensed
C r
Ġb read
ĠH ouston
Ġn od
Ġhop es
ĠCG Rect
Ġgu ilty
.g if
Ġro se
.Com mon
T ip
AN K
ĠF C
D uring
ĠSym fony
Ġdef ensive
k m
) >
arch ive
ĠU RI
ycl ing
- o
ĠWe bsite
AM P
ish ment
Ġdo ctors
D irect
AR I
ĠRed irect
ier en
_d ist
y o
ĠPro gress
Ġz um
Ġmem or
ĠE D
Ġj ur
æį ®
_T ABLE
Ġu uid
Ex pr
. head
(' %
point er
Ġest imate
ĠG reg
Ġlo ader
Ġi OS
Ġm ens
[ y
Ġref used
Ġprec ision
is ch
ĠA CTION
Cl oud
s With
( ret
_ADD R
_con f
(d f
Ġlock ed
Ġr ising
ãĥ» ãĥ»
ĠM s
Ġscen es
_EX T
_ raw
_ the
pe ople
Ġre con
ĠF un
Ġb less
ĠUp dated
Ã¼ n
ĠĠĠĠĠĠĠĠĠĠĠĠ čĊ
pe ction
Re lease
.log ger
ĠS Y
Ġcoun sel
ur d
_ true
Ġevery body
iv ot
Ġh ence
ĠN AS
Ġoppos ed
unk nown
ĠDES C
ĠCh air
fa iled
ĠIN CLUDING
Ġwrit ers
{ }Ċ
ÃŃ t
_c opy
} :
ĠB at
Ġconvert ed
ed ing
pl acement
ĠH ost
S ound
Ð¸ Ð¼
Ġs ought
m id
Ġsal ary
og g
âĦ ¢
b ul
Ġw ir
valid ator
_ST AT
.st ore
ĠB attle
Ä± n
Ġ-- >ĊĊ
Tr ump
d ot
ĠCON T
.f etch
Ġcontin u
w as
Ġfra ud
_t mp
mit ter
.p ictureBox
G A
Ġt ournament
. Input
[ r
ex ion
cent age
ĠKore an
und ef
ĠAv ailable
resh ape
Ġk it
ĠStr uct
ĠS UB
An swer
_l ib
.t witter
Ġo re
ĠDr agon
.Ex t
, k
Ġexplan ation
ref s
ĠDr ive
ĠTr aining
.H as
int age
b ig
olog ist
enn is
Ù ĩ
Ġch icken
ĠĠĠĠĠĠĠĠĠĠ Ċ
ç Ľ
ãģ §
Ġpe ak
Ġdrink ing
Ġen code
ĠNE W
m alloc
ĉf printf
Ġ= ================================================================
in cluding
Ġprincip les
ĠM ah
st orage
- key
Ġkey word
% ;
Ġtr ained
.con trib
Ġk v
__ ':Ċ
ĠB oy
param eter
Ġsu ite
Ġthous and
Ġco ordinate
-g enerated
íķ ĺ
gener ated
Ġad mitted
Ġp ussy
# w
Ġsw im
un ion
N a
ĠRoy al
.ch annel
Up dated
_RO OT
Ġv ital
ra ction
ĠCrush er
Ġpre ced
Ġhor izontal
Blue print
Ġattr s
Ġsm oke
Ð Ĵ
. Equals
F B
ĠRes ources
roll ing
Ġpass es
ĠN um
rot ate
et ype
\ ",
Ġsens itive
Ġt all
? âĢĿĊĊ
Pro xy
i y
_ section
âĢĶâĢĶ âĢĶâĢĶ
br id
Ġcirc uit
at an
EN C
Ġdr iven
Ġvot ed
Ġeduc ational
Ġinter action
abet es
Ġt one
ĠInitialize Component
Ġmer ely
Ġì ŀ
co okie
_ div
ĠUIL abel
vel y
} );čĊ
_ ENT
#+ #+
art icles
ĠSou thern
Ġstrong er
ĠG iven
ĠE ric
ĠI R
ab stract
U nder
n able
Ġincre ment
ov en
Ġco in
_t imer
