Ġ Ġ
ĠĠ ĠĠ
i n
Ġ t
ĠĠĠĠ ĠĠĠĠ
e r
ĠĠ Ġ
o n
Ġ a
r e
a t
s t
e n
o r
Ġt h
Ċ Ċ
Ġ c
l e
Ġ s
i t
a n
a r
a l
Ġth e
; Ċ
Ġ p
Ġ f
o u
Ġ =
i s
ĠĠĠĠ ĠĠĠ
in g
e s
Ġ w
i on
e d
i c
Ġ b
Ġ d
e t
Ġ m
Ġ o
ĉ ĉ
r o
a s
e l
c t
n d
Ġ in
Ġ h
en t
i d
Ġ n
a m
ĠĠĠĠĠĠĠĠ ĠĠĠ
Ġt o
Ġ re
- -
Ġ {
Ġo f
o m
) ;Ċ
i m
č Ċ
Ġ (
i l
/ /
Ġa nd
u r
s e
Ġ l
e x
Ġ S
a d
Ġ "
c h
u t
i f
* *
Ġ }
e m
o l
ĠĠĠĠĠĠĠĠ ĠĠĠĠĠĠĠĠ
t h
) Ċ
Ġ{ Ċ
Ġ g
i g
i v
, Ċ
c e
o d
Ġ v
at e
Ġ T
a g
a y
Ġ *
o t
u s
Ġ C
Ġ st
Ġ I
u n
u l
u e
Ġ A
o w
Ġ '
e w
Ġ <
at ion
( )
Ġf or
a b
or t
u m
am e
Ġ is
p e
t r
c k
â Ģ
Ġ y
i st
-- --
. ĊĊ
h e
Ġ e
l o
Ġ M
Ġb e
er s
Ġ on
Ġc on
a p
u b
Ġ P
ĠĠĠĠĠĠĠĠ ĠĠĠĠĠĠĠ
as s
in t
> Ċ
l y
ur n
Ġ $
; ĊĊ
a v
p ort
i r
- >
n t
ct ion
en d
Ġd e
it h
ou t
t urn
ou r
ĠĠĠĠ Ġ
l ic
re s
p t
= =
Ġth is
Ġw h
Ġ if
Ġ D
v er
ag e
Ġ B
h t
ex t
= "
Ġth at
** **
Ġ R
Ġ it
es s
Ġ F
Ġ r
o s
an d
Ġa s
e ct
k e
ro m
Ġ //
c on
Ġ L
( "
q u
l ass
Ġw ith
i z
d e
Ġ N
Ġa l
o p
u p
g et
Ġ} Ċ
i le
Ġa n
at a
o re
r i
Ġp ro
; čĊ
ĉĉ ĉĉ
t er
a in
Ġ W
Ġ E
Ġc om
Ġre turn
ar t
Ġ H
a ck
im port
ub lic
Ġ or
e st
m ent
Ġ G
ab le
Ġ -
in e
il l
in d
er e
: :
it y
Ġ +
Ġt r
el f
ig ht
( '
or m
ul t
st r
. .
" ,
Ġy ou
y pe
p l
Ġn ew
Ġ j
ĠĠĠĠĠĠĠĠ ĠĠĠĠĠĠĠĠĠĠĠ
Ġf rom
Ġ ex
Ġ O
l d
Ġ [
o c
: Ċ
Ġs e
Ġ le
---- ----
. s
{ Ċ
' ,
an t
Ġa t
as e
. c
Ġc h
< /
av e
an g
Ġa re
Ġin t
âĢ Ļ
_ t
er t
i al
a ct
} Ċ
iv e
od e
o st
Ġc lass
Ġn ot
o g
or d
al ue
al l
f f
( );Ċ
on t
im e
a re
Ġ U
Ġp r
Ġ :
i es
iz e
u re
Ġb y
i re
Ġ} ĊĊ
. p
Ġs h
ic e
a st
pt ion
tr ing
o k
_ _
c l
# #
Ġh e
ar d
) .
Ġ @
i ew
ĉĉ ĉ
Ġw as
i p
th is
Ġ u
ĠT he
id e
a ce
i b
a c
r ou
Ġw e
j ect
Ġp ublic
a k
v e
at h
o id
Ġ= >
u st
q ue
Ġre s
) )
' s
Ġ k
an s
y st
un ction
**** ****
Ġ i
Ġ us
p p
on e
a il
== ==
n ame
Ġst r
Ġ /
Ġ &
a ch
d iv
yst em
el l
Ġh ave
er r
ou ld
ul l
p on
Ġ J
_ p
Ġ= =
ig n
S t
. Ċ
Ġp l
) ;ĊĊ
f orm
p ut
ou nt
} ĊĊ
d d
it e
Ġg et
r r
om e
Ġ âĢ
ar am
c c
Ġ* /
E R
I n
le s
_ s
on g
i e
Ġc an
Ġ V
er v
p r
Ġ un
ro w
b er
Ġd o
l l
Ġ el
Ġs elf
at ed
ar y
Ġ .
' ]
u d
Ġ en
ĠT h
ĠĠĠĠĠĠĠĠĠĠĠĠĠĠĠĠ ĠĠĠĠĠĠĠ
t e
_ c
u ct
Ġa b
or k
. get
Ġ #
a w
res s
o b
N ame
ap p
[ '
Ġal l
or y
it ion
an ce
e ar
Ġcon t
v ent
i a
Ġw ill
I N
ĠĠĠĠĠĠĠĠ Ġ
re turn
Ġ< /
d ata
) ĊĊ
R e
p le
il d
th er
Ġy our
" Ċ
( $
Ġ out
) ,
Ġh as
S tring
s o
Ġ up
a x
Ġde f
Ġb o
g e
al se
O N
p er
ic h
Ġb ut
Ġ Ċ
Ġ _
_ m
ad d
que st
od el
s elf
er y
f t
en s
// //
a ke
. C
Ġg o
Ġf unction
Ġ K
iv ate
Ġ im
Ġcon st
. t
Ġ*/ Ċ
) ;čĊ
Ġv oid
Ġs et
ĠS ystem
c ri
( )Ċ
l i
ĉ if
. m
al ly
s et
e p
âĢĻ s
b o
de f
' ,Ċ
Ġm e
Ġ !
at ch
" >
" ,Ċ
e c
ĠI n
p h
Ġ |
_ f
Ġv ar
en ce
I d
re e
in k
le ct
u g
et h
Ġel se
-------- --------
con t
Ġs o
at ic
Ġl o
p ro
t on
s s
ow n
ab el
o int
ou s
el d
S T
T he
ĠĠĠĠĠĠĠĠĠĠĠĠĠĠĠĠ ĠĠĠĠĠĠĠĠĠĠĠĠĠĠĠĠ
R E
" :
ol or
t p
e g
ke y
u de
ĠS t
ou nd
Ġa r
" );Ċ
en er
s er
b ject
ess age
f er
Ġm ore
ation s
ent s
Ġh is
Ġthe y
. S
Ġ Y
u se
n e
is h
ol d
_ d
i o
i eld
Ġp er
C ont
ing s
## ##
Ġd ata
Ġs a
e f
f o
Ġon e
en g
Ġd is
A T
Ġn ame
Ġtr ue
v al
le d
. f
Ġn e
Ġ end
. T
c re
ar k
lo g
E x
err or
_ id
ur re
ang e
Ġn ull
rr ay
Ġm y
p an
ic t
at or
V iew
L ist
ĉ return
âĢ Ŀ
Ġp re
Ġ x
cl ude
ar g
o v
. h
Ġ >
Ġthe ir
' )
ir st
ic k
g h
L E
O R
Ġpr ivate
t em
čĊ čĊ
us er
Ġ )
c om
. A
" ;Ċ
Ġ id
re ad
Ġwh o
_ b
" >Ċ
Ġt ime
Ġm an
r y
==== ====
rou p
ro p
p ublic
v el
um ber
b le
Ġwh ich
******** ********
Ġan y
Ġf alse
w e
Ġv alue
Ġl i
" )
nd er
g r
Ġn o
p aram
f ig
.c om
Ġa pp
_ l
ion s
. D
ĠC h
Ġab out
Ġa dd
Ġs u
Ġstr ing
I D
Ġo ver
str ing
. l
our ce
_ C
] Ċ
Ġ qu
ĠS tring
c a
S E
Ġ ro
s h
u al
T ype
s on
n ew
er n
Ġa g
A R
] ;Ċ
] .
Ġ ?
ic al
Ġd es
ut h
i x
ay s
Ġt ype
' t
a ult
Ġin ter
v ar
. b
Ġp art
. d
urre nt
I T
E N
en c
( f
r a
v alue
ch o
ut ton
o se
Ġ! =
at er
Ã ©
re ate
ol l
p os
y le
n g
A L
us ing
am es
Ġ{ čĊ
at es
el y
Ġw ork
Ġ em
in al
Ġs p
Ġwh en
.s et
ĠĠĠĠ ĠĠ
) :Ċ
t o
qu ire
ind ow
le ment
pe ct
as h
[ i
Ġu se
. F
pe c
Ġa d
o ve
ce ption
eng th
in clude
ad er
ĠĠĠĠĠĠĠĠĠĠĠĠĠĠĠĠ ĠĠĠĠĠĠĠĠĠĠĠ
at us
T h
it le
r it
v oid
() .
( Ċ
Ġof f
Ġo ther
Ġ& &
' ;Ċ
m s
Ġbe en
Ġt e
m l
c o
n c
erv ice
Ġ %
** Ċ
an n
ad e
ĊĊ ĊĊ
lo ck
con st
pon se
Ġs up
+ +
d ate
Ġa cc
Ġh ad
Ġb u
ĠR e
Ġw ere
Ġf ile
Ġw ould
ĠâĢ ľ
v en
is s
Ġ our
c lass
r aw
Ġy ear
D ata
Ġv al
Ġs ome
f ter
y s
Ġ// /
rou nd
v iew
Ġp e
Ġth ere
Ġsa id
d u
o f
l ine
/ *
d uct
Ġh er
ĠĠĠĠĠĠĠĠ ĠĠĠĠĠ
R es
Ġc o
Ġcom m
is e
m in
ĠĠĠĠ Ċ
# include
eth od
. P
ut e
Ġas s
I nt
as k
lo c
Ġli ke
od y
Ġle t
lo ad
Ġa m
ro l
Ġg r
y p
Ġal so
ĠI t
ur l
if ic
or s
_ P
_ n
ig h
Ġth an
C om
A N
U L
at ing
ĠTh is
re f
_ S
Ġst atic
ro ll
Ġj ust
Ġres ult
i an
id th
Ġthe m
) );Ċ
d er
re ak
C on
: //
u le
.. .
ar ch
em ent
Ġ< <
us h
en se
ar r
Ġint o
c ess
am p
i ed
um ent
Ġ \
] ,
w o
al s
Ġwh at
an c
V alue
= '
ol um
Ġp os
ag es
ay er
Ġs c
u es
" )Ċ
_ T
Ġl ist
( s
Ġc ase
C h
ĉĉĉĉ ĉ
//// ////
pon ent
Ġ z
Ġk n
le t
D E
re d
Ġf e
Ġ} ,Ċ
Ġ ,
( t
Ġf irst
' );Ċ
w ord
Ġ import
Ġa ct
Ġch ar
C T
ĠT r
op le
= {
ĉ f
i ent
c ent
. j
le ction
) )Ċ
Ġon ly
Ġpr int
m er
. W
o ck
Ġ --
T ext
Ġo p
an k
Ġit s
Ġb ack
[ "
Ġne ed
Ġc l
Ġs ub
Ġl a
( (
. "
O bject
Ġst art
f ile
( self
n er
e y
Ġus er
Ġ ent
ĠC om
it s
ĠC on
ou ble
ow er
it em
ver y
ĠW e
lic k
Ġ Q
ph p
t tp
' :
ic s
Ġu nder
Ġ* Ċ
. L
) ;
ic es
Ġre g
) čĊ
ĉ public
S S
Ġth en
re at
i ous
. G
e k
ire ct
he ck
cri pt
n ing
ĠU n
Ġm ay
ĠW h
B o
I tem
str uct
. st
re am
ib le
lo at
Ġor g
u nd
s um
_ in
.. /
_ M
Ġh ow
r ite
' Ċ
T o
w w
Ġpe ople
ind ex
. n
ht tp
( m
ect or
Ġin d
Ġj av
] ,Ċ
ĠH e
_ st
f ul
o le
) {Ċ
Ġsh ould
op y
el p
i er
_ name
ers on
I ON
ot e
Ġt est
Ġb et
rr or
ul ar
ã Ģ
Ġ Ð
b s
t ing
Ġm ake
T r
Ġa fter
ar get
R O
olum n
r c
_ re
def ine
Ġr ight
r ight
d ay
Ġl ong
[ ]
( p
t d
con d
ĠP ro
Ġre m
ption s
v id
. g
Ġ ext
Ġ __
' )Ċ
p ace
m p
Ġm in
st ance
a ir
a ction
w h
t ype
ut il
a it
< ?
I C
t ext
Ġp h
Ġf l
. M
cc ess
b r
f ore
ers ion
) ,Ċ
. re
ate g
Ġl oc
in s
- s
tr ib
ĠI nt
Ġa rray
, "
P ro
( c
ess ion
> ĊĊ
Ġs he
" ]
ap h
Ġex p
ert y
ĠS e
Ġp ar
un c
E T
Ġre ad
pr int
Ġre l
Ġfor m
Ġd r
Ex ception
in put
Ġtr ans
#### ####
ord er
B y
Ġa w
it ies
u ff
pl ay
. add
ĠâĢ ĵ
Ġw ant
Ġcom p
ment s
Ġ| |
a z
b e
Ġn umber
Ġre quire
ĠE x
Ġc ol
Ġ key
em ber
Ġt wo
Ġs ize
Ġwh ere
U T
res ult
ĠĠĠĠĠĠĠĠĠĠĠĠĠĠĠĠ ĠĠĠĠĠĠĠĠĠĠĠĠĠĠĠ
ou gh
or ld
o od
u ch
at ive
g er
are nt
Ġ/ *
Ġar g
Ġwh ile
( this
Ġre c
Ġd if
St ate
Ġs pec
r ide
_ F
Ġlo ok
A M
il ity
et er
âĢĻ t
ĊĊ Ċ
ay out
---------------- ----------------
ag er
Ġc ould
Ġb r
end s
u res
Ġkn ow
et s
ĠI f
ĠS h
. w
b ack
Ġs er
Ġ+ =
Ġf r
() );Ċ
Ġh and
I nd
UL L
I m
() ;ĊĊ
Ġm ost
Ġtr y
Ġn ow
rou gh
> čĊ
ack age
Ġh im
. _
if y
Ġb reak
Ġ );Ċ
re n
# define
it t
Ġa p
ĉ c
( n
ĠY ou
: ĊĊ
- m
Ġe very
ust om
li ent
oc ument
cri ption
E rror
- b
Ð ¾
] [
tr ans
Ġp oint
Ġst d
Ġf il
T ime
Ġm od
Ġ ->
Ġ error
a h
Ġt ext
roll er
lo se
q l
Ġp ol
> </
Ġsh ow
U ser
as ed
Ġ{ ĊĊ
Ġf ind
Ð °
E D
s pan
en u
Ġc urrent
Ġus ed
ce pt
cl ud
Ġpl ay
Ġl og
ut ion
f l
Ġse e
indow s
Ġh elp
Ġthe se
Ġp ass
Ġd own
Ġe ven
as on
u ild
f rom
( d
Ġb l
l abel
el se
Ð µ
Ġ( !
iz ed
() ,
Ġo b
Ġit em
um p
U R
or n
Ġd on
S e
m an
am ple
t n
======== ========
H e
gr am
Ġd id
w n
_ h
iv er
Ġs m
Ġth rough
ĠA n
ch e
Ġin v
ou se
Ġ es
ĠN ew
ex port
m ary
ut o
l er
Ġl ast
Ġe vent
tr y
ï ¼
il y
ign ed
in es
oll ow
ic ense
so le
le ar
( int
Ġag ain
Ġh igh
ht ml
Ind ex
uth or
Ġ/ **Ċ
Ġl ine
E vent
_ D
Ġdo es
it ial
Ġc r
ar s
Ġt em
ca use
f ace
Ġ `
_ A
B utton
at ure
ect ed
E S
ist er
ĉ Ċ
Ġbe fore
a le
o ther
Ġbe cause
ro id
Ġ ed
i k
re g
ĠD e
Ġd ist
} ,Ċ
Ġst ate
Ġcon s
r int
at t
Ġh ere
in ed
Ġf inal
Ġ" "
K ey
L O
Ġd el
pt y
th ing
ĠA nd
Ġr un
Ġ X
y m
. app
Ġv ery
c es
_ N
are d
w ard
l ist
it ed
ol og
it ch
Bo x
if e
Ġa c
Ġm odel
Ġm on
Ġw ay
le te
Ġc all
Ġat t
Ġc al
ver t
Ġde c
le ase
ou n
Ġ} );Ċ
f r
form ation
et ail
Ġn um
a j
qu ery
Ġw ell
Ġo bject
ĠA s
Ġyear s
C olor
I S
Ġdef ault
W h
Ġin s
a int
Ġjav a
Ġs im
ĠA r
m on
t il
() ;čĊ
) :
S et
at ter
Ġv iew
Ġp res
arr ay
W e
A t
Ġb el
Ġman y
M an
end er
Ġbe ing
Ġgo od
ĉĉĉĉ ĉĉ
ation al
w are
. log
{ čĊ
Ġus ing
_ B
Ġ: =
_ w
ist s
l ish
Ġst ud
ĠA l
Ġg u
con fig
ur ing
t ime
ok en
ames pace
Ġre quest
Ġch ild
Ġ Ã
lo b
Ġp aram
Ġ} čĊ
Ġe cho
f unction
**************** ****************
p s
E lement
al k
lic ation
b y
S ize
raw ing
Ġp erson
ĠĠĠĠĠĠĠĠĠĠĠĠĠĠĠĠ Ġ
\ n
ob ject
in ce
E n
F ile
u f
ff ect
A C
Ġst yle
sum mary
Ġ que
_ r
Ġ( $
M odel
id ent
Ġm ethod
I L
ot t
les s
IN G
Ġ( )
Ġex pect
y nc
p ackage
ur s
Ġpro t
. /
p re
Ġ )Ċ
m a
Ġs ur
Ġf ound
In fo
p ar
im es
. e
ain s
Ġp ost
- d
ole an
Ġs l
P E
Ġsu ch
se lect
ain er
Ġth ink
Ġdif fer
. r
/ **Ċ
F F
o ol
pl ate
qu al
ĠF or
Ġm uch
u c
( new
od ule
Ġs om
Ġh ttp
ĠL ist
Ġc ount
Ġin st
ch ar
m it
. id
ak ing
Ġg ener
p x
v ice
_ data
ĠN ULL
} čĊ
id d
ãĢ Ĥ
Ġm ed
or g
id er
ach e
w ork
Ġc heck
we en
Ġ( (
th e
ant s
> <
. B
- c
Ġop en
Ġe st
ĠĠĠĠĠĠĠĠ Ċ
Ġn ext
I M
Ñ Ĥ
O T
Ã ³
Ġf ollow
cont ent
ĠĠĠĠĠĠĠĠ ĠĠĠĠ
Ġin clud
H E
ĠR es
Ġh ref
Ð ¸
Ġc ar
yp es
im age
U n
Ġbo ol
A D
Ġg ame
.F orm
row s
* /
vel op
.D rawing
Ġp ath
is ion
Ġe ach
ĠP l
_t ype
P ath
ne ction
Ġa v
' ).
Ġsup port
EN T
re m
" ).
Ġo wn
Ġc or
c ount
m iss
u ally
Ġm em
st d
i ence
se arch
" ĊĊ
F orm
Ġs ex
en ame
Ġs ign
Ġ et
ĠĠĠĠĠĠĠĠ ĠĠ
', '
ĠA pp
Ġth ose
o ff
Ġ err
Ġs ystem
Ġbe st
c ode
Ġs ame
Ġd i
us s
Ġc reate
ath er
A rray
. in
f e
S ervice
U N
at s
Ġ Z
al th
Ġm ade
tr ue
A B
Ġm ark
r id
if ied
, čĊ
y n
p ress
Ġg roup
Ġf in
ĠL icense
F ield
eg er
Ġw orld
in ess
t y
Ġpro cess
( b
Ġc re
ar n
iv es
Ġm ain
ide o
_ g
A G
val id
im g
P I
Ġc olor
Ġre port
Ġt ake
ri b
O M
Ġd ay
Re quest
Ġs k
b ers
ĉ s
.A dd
o ot
Im age
Ġcom ple
ol lection
Ġto p
Ġf ree
A S
D e
ĠO n
I G
et a
D ate
Ġa ction
O ver
it or
ĠĠĠĠĠĠĠĠĠĠĠĠĠĠĠĠ ĠĠĠĠĠĠĠĠĠĠĠĠĠĠĠĠĠĠĠ
n ot
Ġind ex
h er
ic on
O n
;čĊ čĊ
iv ity
m and
.W indows
O L
Ġre al
Ġm ax
l and
.. ..
r aph
Ġbu ild
le g
ass word
? ĊĊ
âĢ ¦
o ok
u ck
Ġm essage
t est
iv ers
Ġin put
Ġar t
Ġbet ween
G et
ent er
g round
en e
Ã ¡
.l ength
N ode
( i
C lass
f or
ĠâĢ Ķ
t en
o in
Ġ ke
u i
ĠI N
Ġt able
s ub
ĠL e
Ġhe ad
Ġm ust
//////// ////////
. util
Cont ext
Ġor der
Ġm ov
o ver
Ġcont in
Ġs ay
st atic
.T ext
Ġclass Name
pan y
Ġt er
he ad
r g
Ġpro duct
Th is
. âĢĿ
ĠB ut
lo y
Ġd ouble
s g
Ġpl ace
. x
m essage
Ġin formation
pr ivate
Ġo per
c ed
d b
"> </
P aram
ic le
Ġwe ek
Ġpro p
t able
id get
pl ace
P rop
ĠA ll
el s
bo x
.ĊĊ ĊĊ
. R
ĠT o
it er
S h
ur ation
old er
_l ist
c ome
Ġs w
iz ation
ĉf or
b l
Ġpro gram
( e
a pe
che ck
.Form s
Ġu nd
ateg ory
ag s
Ġres ponse
U S
re quest
Ġstr uct
es cription
Ġc ode
_ H
uff er
Ġwith out
lob al
Man ager
il ter
P O
ĉ this
o ption
Ġs ol
Ġ= ==
ak es
Cont roller
M essage
Ġre f
e ver
ĠS o
ain ing
.app end
Ġst ill
Ġpro vid
Ġass ert
m ed
Ġc ap
us iness
Ġre p
t ings
v ed
. N
ap i
O D
Ġf ield
iv en
ot o
âĢ ľ
c ol
( x
g ht
Res ult
C ode
. is
l ink
Ġc our
A n
Ġte am
ĉ int
if t
Ġse cond
Ġgo ing
Ġr ange
_ E
n ess
Ġf am
Ġn il
ĠC ont
ail able
ut es
at ab
Ġf act
Ġv is
( &
ĠA N
A l
t itle
Ġand roid
C E
\ "
ir t
Ġw rit
Ð ½
ĉ m
ft ware
on d
Ġre t
os ition
Ġh ome
Ġle ft
arg s
mer ic
Ġd irect
oc i
P l
A s
re t
ad o
O f
ch n
ĠG et
e e
ro ss
() ;
__ __
.p h
I t
out e
Ġex per
cho ol
ww w
} ,
Ġall ow
Ġ Â
() )
s ize
is m
a i
tr act
an e
.. .ĊĊ
cont ext
Ġbe g
C H
Ġp age
h ip
n o
c ore
s p
Ġdiffer ent
i able
ĠM e
_ IN
b utton
ĠI s
erv ices
Ġc a
Ġa round
A pp
r ation
Ġre ce
Ġre ally
Ġim age
Ġt arget
Ġde p
opy right
tr a
ing le
it al
L ayout
Ġbo th
Over ride
ar m
= >
ater ial
ile d
Ġp ut
Q u
Ñ Ģ
un g
m ap
ĉĉĉĉ ĉĉĉĉ
Ġle vel
Com ponent
bo ok
cre en
_ RE
Ġcon fig
ã ģ
O r
. data
Ġd ocument
", "
trib ute
u x
L og
fer ence
p ost
_ e
Ġloc al
and om
ass ert
V al
lect ed
in a
atab ase
A dd
Ġcont ent
.p rint
s igned
r ic
." ĊĊ
Ġf a
! ĊĊ
- f
iv ed
Ġ quest
. ex
Ġf loat
Ġde velop
Ð¾ Ð
M ap
ad ing
Ġpos s
U E
n amespace
_ O
ĉ b
.G et
> (
j son
etail s
Ġto o
Ġext ends
ĠN one
Ġf ore
( String
form at
Ġg reat
int er
ca le
Ñ ģ
r on
iv ing
E nt
enc y
x t
o y
Ġmon th
Ġh app
Ġsup er
b ar
def ault
_ de
ord s
l n
( {Ċ
ĠI nd
as es
Ġt itle
Ġcont ext
o h
- p
E m
Ġm et
T est
Ġl ife
_ v
ĠU S
U I
oc ation
m d
Ġ[ Ċ
Ġ ]
s w
Ġin cre
s cript
ent ial
w ays
. de
Ġs rc
Ġc atch
ĠA meric
// Ċ
ĠĠĠĠĠĠĠĠ ĠĠĠĠĠĠ
Ġp ay
pl it
âĢ Ķ
Ġc oun
ob j
.ph p
Ġch ange
eth ing
' re
ast er
lo s
l ation
ĠĠ Ċ
L e
Ã ¤
( {
read y
ĠN o
Ġpos ition
Ġo ld
Ġbo ok
able d
b ug
H and
} ;ĊĊ
is play
av ing
Ġgo ver
Ġv ersion
S ystem
n ect
res ponse
St yle
U p
ang u
Ġth ree
in it
er o
Ġl aw
end if
Ġb ase
em ail
( l
_ V
Ġcon f
AT E
Ġd uring
t es
Ġcon sole
ĠP r
Ġs pe
v es
p ath
ial og
d ition
_t o
ard s
Ġagain st
et work
ĠP h
_ L
c ur
im it
W ith
Ġp ower
i um
' ;ĊĊ
Ġw om
le ft
our ces
at ri
ĠI m
ĠM an
or th
$ {
qu als
es e
_s ize
Ġis s
ot al
- g
i que
r ame
Ġw idth
er g
) (
itt le
T R
ĠThe y
enc es
r l
on s
Ġl abel
. y
- t
up date
an el
s c
.t o
Ġpro ject
Ã ¼
Ġe lement
Ġsu ccess
ĉĉ Ċ
.s h
r am
ch ed
() )Ċ
Ġ( Ċ
Ġd ate
Ġto t
_ ST
A ll
ific ation
ĉ var
Ġt ri
ch em
m y
Ġb ig
ĠA d
ĠA t
ot s
n um
A ct
Ġm ap
er a
co pe
. $
, âĢĿ
Ġp op
Ġf ew
Ġl en
u id
et ers
u les
Ã Ń
s ource
http s
Ġd em
Ġe ar
######## ########
Ġm atch
or ies
ac es
ĠC l
Ġn ode
ir c
loc al
un ity
} ;Ċ
Ġan other
< <
og le
Ġs it
ew ork
T E
. I
N S
olog y
ou ght
.C ont
> >
Ġc are
st ate
ĉ private
Ġe ffect
++ )
_f ile
end ing
L ine
F or
i or
ĠS c
Ġf un
.S ize
ĉ else
] )
st art
v ious
Ġ} ,
our s
Ġle g
Ġs ervice
Ġs ince
ir on
L abel
Ġn on
Ġl os
ict ion
Ġf ull
act er
bo ard
g ress
Ġt urn
ith er
.s ize
Ġb ody
res h
et urn
( _
y les
orm al
p i
Ġsom ething
! --
u int
Ġpro du
Ġst and
Ġpro ble
Ġav ailable
m t
ĠB l
Ġ ...
Ġb lock
In put
Ġke ep
C ount
op en
Ġ[ '
Ġth row
uild er
A ction
Ġth ings
Tr ue
Ġ url
ĠB o
print f
Ġre d
j s
.c reate
ĠO r
St atus
In stance
Ġcont rol
Ġcom e
Ġc ustom
loc ation
m odel
Ġ čĊ
Ġs ource
Ġe as
. out
] ĊĊ
one y
Ġaw ait
Ġpart ic
A P
ub lish
od es
_p ro
p ly
rit er
Ġpro v
Ġm ill
H T
] )Ċ
Ġch ang
Ġas k
ĠĠĠĠĠĠĠĠĠĠĠĠĠĠĠĠ ĠĠĠĠĠ
Ġout put
Ġem ail
.p ush
Ġ} čĊčĊ
in ation
atri x
T able
u ccess
] );Ċ
ĠĠĠĠĠĠĠĠĠĠĠĠĠĠĠĠ ĠĠĠĠĠĠĠĠĠĠĠĠĠĠĠĠĠĠĠĠĠĠĠ
Ġdis c
( [
Ġb usiness
he ight
. html
t a
f ield
Ġrequire d
_ R
Ġgover n
} čĊčĊ
le x
. ,
ĠS et
ur ch
// /
t s
a f
Ġm ight
ist ory
S tr
Ġne ver
Res ponse
ar se
ad a
ĠH ow
Ġ* )
Ġ ;
Ġh ard
A d
Ġinter n
us ed
( data
m od
ann el
Ġn p
ug g
Ġ/ >Ċ
Ġcal led
b ody
Ġch o
( r
_s et
ir d
Ġ> =
Ġ} ;Ċ
Ġo ptions
ĠG ener
Ġhe ight
P oint
Y ou
et y
C lick
Ġsm all
Ġ ide
Ġacc ess
angu age
Ġprot ected
Ġj ob
ĠTh ere
D ef
Ġadd ress
Ġu int
N ot
o o
ap s
< div
ain ed
at ur
Ġs um
- w
ĠD ate
Ġl ittle
Ġf ri
Y PE
Ġp ort
e h
pr ing
_p ath
Ġst atus
a im
bo ol
Ġap pe
Ġo s
. name
ens ion
_ G
Ġup date
Con fig
a ff
ER R
Ġ< =
at ely
# if
u ction
ĠT e
Ġl ink
ĠU ser
.f ind
. org
m e
Ġg iven
O ut
# endif
Ġbet ter
P age
Ġfe el
en n
M L
Ġal ready
Ġinclud ing
o ogle
r u
ic ally
pro p
le an
out er
Ġal ways
ord ing
I f
or age
Ġp arent
v is
ĉĉĉĉ ĉĉĉ
Ġg ot
st and
Ġle ss
/ s
ĠA ss
ap t
ire d
ĠA dd
Ġacc ount
p loy
Ġd er
res ent
Ġl ot
Ġval id
ĉ d
Ġb it
pon ents
Ġfollow ing
_ ex
S ON
Ġs ure
oc ial
Ġp rom
ert ies
he ader
.p ro
Ġbo olean
Ġse arch
k en
Ġor ig
Ġ er
E d
E M
a ut
l ing
al ity
By Id
b ed
ĉc ase
eth er
pos it
Ġinv est
ĠO R
Ġs ays
miss ion
AM E
Ġtem p
o ad
Ġre st
in fo
Ġinter est
A rg
Ġper form
pon s
ĠV iew
Ġv er
l ib
( const
U til
List ener
ar ge
Ġm ult
Ġd ie
Ġs ite
../ ../
E L
Ġval ues
Ġ} )Ċ
p en
N o
ic ro
Ġbe h
Ġ' ./
ac y
re c
() ->
ĉ ĠĠĠ
" ))
Cont ent
_ W
ple ment
Ġw on
Ġv ideo
ad i
p oint
% %
Ġg l
erv ed
v iron
I F
ut ed
ã ĥ
' m
Ġc ert
Ġpro f
Ġc ell
ar i
Ġpl ayer
a is
Ġc ost
Ġh um
( R
Ġoff ic
k s
.t ext
at ures
Ġtot al
Ġ*/ ĊĊ
o pe
Ġst at
U M
Ġlo ad
ight s
Ġc lear
u ro
Ġte chn
up port
I R
Ġ row
Ġse em
Ġ q
Ġsh ort
ĠN ot
ip p
G roup
se ction
m ax
ir l
Ġover ride
Ġcom pany
Ġd one
" );čĊ
Ġg re
. Re
Ġbel ie
r ist
Ġhe alth
AN T
() ĊĊ
ĠB e
. value
ĠG r
ott om
Ġarg s
P T
st atus
f unc
um ents
- h
N umber
: čĊ
ĠL og
er ver
Ġ) ,Ċ
am ent
Ġob j
in c
Ġchild ren
ic y
I Z
and s
ab ly
Ġdist rib
Ġc ur
er ial
Ġd ays
re ated
re ct
- l
ir m
idd en
om b
Ġin itial
.j s
Ġ â
Qu ery
Ġon line
im al
. con
a u
U rl
cont rol
ire ction
Ġin stance
OR T
ĠF r
wh ere
Ġjav ax
Ġorg an
ap ter
Ġre ason
o ptions
ĠM ar
( a
Ġwith in
.âĢĿ ĊĊ
O DE
_ DE
ad min
end ed
Ġdes ign
ĠD ata
un e
ĠF ile
ro ot
Ġc ent
Ġa rr
_ add
l en
p age
, '
_ str
Ġb ro
ab ility
ou th
/ c
p ose
irt ual
ear ch
_ url
arg in
H ttp
Ġs chool
av a
Ġcons ider
.l abel
ĠA rray
we b
o pt
.print ln
ul ation
Ġf unc
P L
Ġ" \
ĠT ext
act ory
(f unction
n ull
Ġen g
d own
Ġin clude
ĠE n
ĠD r
Ġd b
! !
s ide
Ġin it
quire d
ĠS he
C olumn
re act
Ġan n
Ġst op
Ġl ater
ĠTh at
ent ion
d f
U G
I LE
Ġc lient
ra ft
ff er
PO ST
el per
Ġlo ve
qu ote
ou d
Ġj son
Ġab le
Ġm en
A X
ĠC opyright
Ã ¶
av ig
re q
C lient
} );Ċ
.C om
er c
il t
pec ial
_c om
ro om
. Name
Ġg ive
am b
i ke
Ġcon dition
cl ient
ator s
: "
Ġc opy
ut ure
ivers ity
ern al
{ {
ĠC an
ou nc
d o
Ġo cc
Ġapp ro
th ers
z e
Ġe ither
ĠF l
Ġimport ant
Ġle ad
at tr
AR T
E qual
Ġd a
et ch
ent ity
Ġfam ily
add ing
Ġo ption
Ġex ist
ic a
ĠO bject
' ve
v ers
ition al
out put
ĠTr ue
ĠO F
_t ime
Ġof fer
Ġ} );ĊĊ
H ER
eg in
" "
Ġw ater
Ġc he
ĠM y
ore d
Ġst ep
anc es
C K
A Y
à ¸
str uction
( C
ou ch
St ream
act ive
am a
Ent ity
pro duct
() {Ċ
Ġgovern ment
ĠI D
aj or
A nd
Ġdis play
Ð »
Ġt imes
Ġf our
Ġf ar
Ġpres ent
ĠN S
Ġ\ Ċ
ue st
Ġb as
e cho
ch ild
if ier
Hand ler
Ġl ib
Prop erty
trans lation
Ġro om
Ġon ce
Ġ[ ]
cent er
================ ================
Ġresult s
Ġcontin ue
Ġt alk
_ get
Ġg row
.s w
e b
ĠP ublic
O P
ec ute
ol s
Ġ **
" );ĊĊ
Ġm ass
ure d
.c lass
om ic
Ġme an
ip s
Ġa ut
);čĊ čĊ
Ġun til
Ġmark et
Ġare a
u it
Ġl ength
ĠW ith
struct or
e vent
"> <
ĠS p
I V
Ġm us
if f
Ġk ind
a uthor
ound s
m b
_ key
w idth
posit ory
Ġl ight
u k
R ow
oh n
al f
viron ment
app er
ollection s
Ġs ide
_in fo
Ġex ample
im ary
Ġw r
Ġc amp
cri be
" /
Ġm iss
w ay
Ġb ased
Ġpl an
V is
om ain
un k
Ġaw ay
U P
< T
O S
i od
ĠM on
âĢĻ re
Ġli k
Ã §
iv ely
. v
im er
iz er
S ub
Ġbut ton
ĠU p
Ġexper ience
C L
Ġre nder
_ value
Ġn ear
UR L
al t
Ġcoun try
ib ility
() ,Ċ
e ad
Ġa uthor
Ġspec ific
b ase
( name
on es
ĠD o
Ġal ong
y ear
Ġexp ress
. '
en v
Ġbeg in
Ġso ftware
Ġim p
Ġw in
Ã³ n
Ġth ing
Tr ans
ĠT HE
Ġ< ?
Ġwh y
Ġdoes n
i j
g ing
ĉ g
Ġs ingle
off set
ar ning
og raph
le y
_c ount
Ġan al
cre ate
/ m
ĠR eg
un ch
= $
is k
Ġright s
( M
Ġ"" "Ċ
ap er
.m odel
Ġp o
em pty
art ment
Ġa nt
ĠWh en
Ġwom en
ĠE d
Ġse ason
Ġde st
Ã £
( h
Ġposs ible
Ġse ver
Ġb tn
Ġdid n
Ġs ent
Ġen c
Ġcomm and
Ġ ],Ċ
_ x
Ġre cent
ol ution
v ector
ĠB y
ĠM ay
ĠA ct
» ¿
Ġm oney
IN T
bs ite
ĉ p
. čĊ
ï »¿
s l
atter n
ĠC lass
Ġto ld
ud io
c urrent
Ġe qu
Ġa uto
ĠSt ate
d a
ms g
)) ;ĊĊ
Ġwork ing
Ġqu ery
ĠB r
Ġw indow
a uth
on ly
ĉ t
Ġle ast
ag n
Ġex pl
it ter
ar ing
Ġc olumn
ĠGener al
": "
er al
ri or
Ġrec ord
I B
E X
Ġd at
Ġm aking
u ed
ĠC ar
em p
" .
ĠM ed
Ġc lose
Ġper cent
Ġp ast
( g
: (
Ġw rite
Ġm ove
Ġp at
Cont rol
.T o
Ġv i
*/ Ċ
in ate
' ll
ag ed
N ull
Ġspec ial
IZ E
Ġc ity
/* Ċ
ĠE ng
ix ed
in ary
p y
Ġe ff
ar io
Ġt ell
av or
Ġse lect
le vel
im um
op er
B uilder
I P
') ,Ċ
es c
Ġf ont
" ;ĊĊ
ĠA m
ish ed
ill s
Int er
O W
Ġcour se
Ġl ate
idd le
Ġam ount
Ġas ync
in o
c ul
Ġ ì
and le
_ user
Ġb en
ĠC al
Ġ$ _
ĠR ep
Ġen ough
T oken
. user
( j
S c
W idth
n ow
at form
Ġlook ing
Ġh old
M odule
IT Y
v o
is on
.D ata
y c
Ġp ot
ĠTr ump
id ual
id es
r t
Ġprop erty
ĠĠĠĠĠĠĠĠĠĠĠĠĠĠĠĠĠĠĠĠĠĠĠĠĠĠĠĠĠĠĠĠ ĠĠĠĠĠĠĠĠĠĠĠ
am ework
g o
Ġl ow
Ġpar a
Ġpr ice
ur y
Ġto day
ro y
Ġ' /
Ġpol it
Ġ' '
ym b
P h
Ġad v
Ġatt ack
ĠS te
RO M
an a
Ġme ans
Ġst ory
id s
ak en
Ġme et
Ġm om
ĠâĢ ĺ
Ġ? >
Ġd en
ob ile
ch ange
ĠĠĠĠĠĠĠĠ ĠĠĠĠĊ
ic i
n a
ĠF orm
Ġs ort
Se lect
p are
Ġth ought
_ con
Ġt ask
oc us
ĠD E
ĠM in
Ġo pt
ĉb reak
um er
K E
th en
Ġd et
ĠT est
port s
Ġre view
(' /
m ove
Ġsw itch
ER T
p atch
ann ot
ã Ĥ
Ġab ove
it ive
Ġquest ion
ĠQ u
ãĢĤ ĊĊ
g le
Ġw ord
Ġprov ide
ĠR eturn
Ġre search
Ã£ o
u str
Ġp ublish
chem a
} }
ĠC ON
- in
all back
Ġco ver
\ \
c olor
ĠI S
Ġwh ether
im ate
is c
B ar
Ġd iv
B e
our n
Ġh aving
le m
pl ayer
ab s
am era
ne y
Ġex c
get her
pl ied
a o
[ $
Ġ+ +
i pe
sh ow
/ d
[ :
ag ement
le v
_ ID
r ary
ad es
_ se
a use
Ġem ploy
Ġ*/ čĊ
Ġf re
Ġ' @
Ġcomple t
Ġl arge
r al
\ x
Ġf ac
< String
Ġcre ated
up er
.st ate
Ġh ost
ener ic
/ b
( !
wh ile
i as
B UG
Ġ );ĊĊ
Ġro le
Re g
ĠC olor
St art
Ġp orn
t op
Ġwe b
Ġde v
Ġde al
++ )Ċ
Int eger
pos ition
. on
Ġ( "
ä ¸
Ġproble m
s v
Ġp ress
AB LE
AT ION
ĠSe e
an ch
Ġth ough
le ep
Ġ< !--
Ġpoint s
ĠĠĠĠĠĠĠĠĠĠĠĠĠĠĠĠ ĠĠĠĠĠĠĠĠĠ
. J
Ġ ::
p tr
D B
++ ;Ċ
.p ng
n ode
so ft
pon d
Ġe ver
-------------------------------- --------------------------------
M enu
(' #
Ġs ervices
p g
} )Ċ
param s
Ġact ually
Ġ" /
Em pty
M ethod
Ġid ent
un ic
Ġmill ion
Ġa ff
st yle
Ġcon c
i os
ign ment
UL T
P r
" ;čĊ
Ġunder stand
u ary
Ġhapp en
Ġser ver
ĠC o
S C
Ġle s
Ġfile s
G rid
s ql
Ġof ten
Ġin fo
_ tr
s rc
on y
Ġsp ace
um b
Ġpass word
Ġst ore
, ĊĊ
ĠWh at
g ed
ĠF alse
U s
sw er
_ index
Ġform at
m ost
s m
N ew
Ġd etails
Ġpro b
ĠAN D
() čĊ
il ar
Ġ$ {
ry pt
.C ollections
$ this
ĠF ree
_ of
(f alse
d ated
Ġ> >
Ġf ace
CT ION
Ġs ave
Ġt yp
de v
(" #
AG E
cont ainer
ed it
Q L
Ġitem s
Ġs ocial
i en
ĠRe act
) .ĊĊ
Ġm ar
Ġre du
ĠR E
.p ut
Ġm ajor
C ell
n ext
Ġexpect ed
Ġy et
Ġin div
trib utes
at is
am ed
Ġf ood
S ource
( string
Ġ+ Ċ
it es
d r
Ġmem bers
Ġcom b
item s
ĠP er
T H
= True
Ġb ar
_ SE
com m
( w
)ĊĊ Ċ
Ġs end
Ġin c
un signed
F A
Ġparam s
app ing
ro s
ug in
f a
Ġcon nection
Ġ} ;ĊĊ
Ġbe come
M ode
Ġe v
Ġdif f
ĠUn ited
He ight
ful ly
im ages
Ġm akes
Ġg lobal
Ġcont act
' :Ċ
Ġab s
Ð° Ð
f loat
Ġex cept
ĠP ol
Ch ild
t yp
Ġcert ain
i Ã³n
O UT
Ġim pro
ile s
Ġ-- >Ċ
ĠP art
val ues
os s
/ **
il it
ĠE vent
cur ity
st er
Ġchar acter
Ġnew s
Ġ" ,
Ġde vice
c el
log in
he et
Def ault
@ "
ĉ Ġ
c lick
( value
ĠA b
Ġpre vious
ERR OR
oc al
Ġm aterial
Ġbel ow
ĠCh rist
Ġmed ia
co ver
ĠU I
Ġf ail
Ġbl ack
Ġcom ponent
ĠAmeric an
Ġadd ed
Ġbu y
st it
Ġc ame
Ġde lete
prop erty
od ing
Ġc ard
rop s
Ġhttp s
Ġro ot
Ġhand le
C C
B ack
em plate
Ġget ting
_b y
m ail
_s h
. assert
ĠD ec
( true
Ġcom put
Ġcl aim
' =>
ĠS ub
Ġa ir
op s
n av
em ents
( id
Ġent er
ang ed
E nd
Ġloc ation
Ġn ight
Ġdo ing
ĠR ed
l in
}ĊĊ Ċ
vid er
Ġp ick
Ġw atch
ess ages
Ġhum an
Ġd am
p end
d ir
Ġt ax
Ġg irl
re et
Ġbo x
Ġstr ong
( v
re l
Ġinter face
Ġm sg
f ect
_ at
Ġh ouse
Ġtr ack
' );ĊĊ
j e
ĠJ ohn
ist r
( S
ub e
Ġc e
itt ed
V ER
* )
p arent
Ġapp lication
an y
.sw ing
Ġp ack
\ u
Ġpr act
Ġse ction
ct x
Ġun signed
.P oint
ĠO ne
Ä ±
ip le
a id
Ñ ĥ
V ector
by te
Ġw ait
ĠÃ ł
Ã ¥
Ġto gether
Ġth rows
F O
' ))
h ost
is ing
. view
Ġter ms
fr amework
- r
Ġapp ly
Ġs ession
O ptions
ugg est
Ġo thers
w itter
Ġf und
In it
__ (
ens or
G ET
Ġsever al
i i
[ j
I O
Ġtem plate
P osition
Ġe con
ach ine
Ġ il
.s pring
m ain
el t
im ent
Re c
m m
ĠUn iversity
urs or
ĠĠĠĠĠĠĠĠĠĠĠĠĠĠĠĠ ĠĠĠĠ
G L
ict ure
ith ub
c er
c ast
F rom
a les
Ġsub ject
p assword
n y
Ġes c
.w rite
ï¼ Į
Wh at
. H
Ġh istory
ĠF e
Ġindiv idual
un it
Ġ-- >
Ġd u
I ST
Ġus ers
f s
f alse
un t
T itle
Ġm ot
Ġf uture
ach ed
Ġstart ed
Ġm ode
Ġ' <
_ array
Ġa x
'] ;Ċ
i res
Th ere
ug ht
t ml
pos ed
ic ult
Ġto ok
Ġg ames
Ġ} }
Ġ? >Ċ
Ġproduct s
I s
Ġb ad
ĠD es
.p ath
' ĊĊ
ĠP ost
av el
( :
Ġneed s
Ġkn own
F l
Ġex ec
Ġse en
um e
Ġb order
Ġl ive
tem p
P er
Ġvar iable
i et
ĠD ef
Ġg e
em e
_b ack
f irst
Ġprovid ed
//////////////// ////////////////
Ġfil ename
Ġh ope
ul y
a uto
f ind
_ string
b tn
it ude
At tribute
Ġyou ng
.t xt
Ġwe bsite
ĠP rop
Ġe y
> ();Ċ
ion al
AR R
iction ary
ur ther
. </
AL L
Ġstud y
il i
Ġn etwork
y l
ist ance
O K
N U
re st
ĠS T
icro soft
Ġl imit
Ġc ut
() :Ċ
Ġc ou
og n
Ġsize of
iv al
Ġw ent
. z
L ink
Ġf ire
Ġac ross
Ġcomm unity
reg ion
N E
Re f
Ġoffic ial
Ġvis it
ol ve
Ġrece ived
Ġto ken
Ġmonth s
Ġan im
Ġpartic ular
st yles
ic o
Ġ ess
.Cont rol
Ġ Ã©
b all
Ġle arn
ind ing
V ar
Ġde cl
( err
LE CT
O ne
ph a
Ġ ~
f ort
as ure
Ġm ind
ĠE nd
C heck
Ġqu ick
" ),
AN D
ut ions
B ase
____ ____
Ġcom ment
IN E
âĢĻ ve
B ut
ĠE l
ĠU s
Ġad min
m ark
ĠN ame
` Ċ
ĠT ype
am ic
p c
lo or
F T
Ġo pp
ck et
) ->
t x
Ġp ur
u el
ymb ol
u ation
ang er
Ġback ground
ec ess
ef ined
.... ....
Ġdes cription
Ġrep resent
") );Ċ
press ion
row ser
Ġser ies
ward s
($ _
a ise
Ġh ot
ac ity
ri es
action s
C reate
ad io
amp les
Ġorig inal
ens ive
f ont
st ream
ï»¿ using
.spring framework
ser ver
Ġb ill
AC K
il ename
Ġfr ame
Ġ= Ċ
Ed it
adi us
Ġd raw
ank s
Ġd eter
Ġcom es
_ int
Ġfore ach
ang le
Ġe lect
pect ed
He ader
ist ration
F alse
ĠG ame
Ġfil ter
Act ivity
Ġl arg
in ition
Ġ" <
is ed
Ġrem ove
ĠTr ans
m et
se e
Form at
Com mand
ĠE X
N one
Ġfr ont
A SE
ĠR ec
ound ation
Ġv o
= \"
( *
Ch ange
.W rite
g roup
i ents
u y
******************************** ********************************
Ġd ig
h r
( -
Ġg en
n umber
ve c
uro pe
ent ry
L L
Ġst e
Val id
'] ,
_p aram
Ġse lected
Ġacc ording
ĠD is
Ġ util
B uffer
_ error
Ġass oci
_S IZE
Ġw or
Ġprint f
r ag
Â ł
D D
ĠV al
Ġact iv
E ng
et ime
Ġv irtual
a ign
a ur
ĠP res
ĠEx ception
Ġany thing
ĠO ff
Ġh ours
Ġw ar
Arg s
ag ing
Ġmodel s
ĠT ime
O b
am s
j oy
Ġear ly
. read
Ġc enter
ĠIn itial
Ġl anguage
l ength
x y
Ġs n
Ġin f
P ost
Ġag o
Ġeas y
_c ode
ĠAN Y
_ ch
Ġdown load
( T
av ed
âĢ ĵ
Ġstud ents
Ġf ig
l ight
x x
Ġbu ffer
ĠD ep
ĠM ath
IT H
Ġvar i
Ġd ue
F actory
Ġp or
Ġe p
ot ype
Ġcan not
Ġwh ite
< int
ter n
Ġreg ister
Ġpre d
cl us
_d ate
Ġ/ **
Ġa uth
Ġ[ ]Ċ
Ġper iod
n own
Ġv ot
Ġs creen
' d
T ypes
Ġt mp
Ðµ Ð
ur al
Ġben ef
_ y
Ġn et
ĠSt ates
'] ['
ĠN e
ĠN OT
Ġn eg
Ġcomm on
s cope
Ġc red
g es
_T YPE
Ġs uggest
o om
.ĊĊ Ċ
Ġac cept
Ġr andom
er m
ĠV ector
w ith
T ER
( str
Ġres pons
Ġh it
.S et
gr id
ri a
Ġc lick
und le
C ase
ins ert
Util s
Ġ"" "
Ġim plement
at al
tem pt
tem plate
oc r
return s
Ġplay ers
us ers
ed ef
ĠTh ese
Ġam ong
Ġde b
h a
.get Element
Ġc irc
Ġan swer
Ġw alk
Ġt reat
ĠG e
ĠC reate
Ġa ge
Ġre q
O ST
ang ular
Ñ ı
Ġf ive
Ġdistrib uted
Ġfri end
T P
Ġc lean
ow s
.Control s
d is
Ġw ords
. io
z y
Ġhe ader
ĠC heck
âĢĻ m
j ust
h older
=" <?
ĠG NU
ĠC ol
im est
ent ic
{ ĊĊ
Ġt re
l ast
l a
ĠY ork
L o
Ġdisc uss
ĠG od
Ġiss ue
re w
W indow
Ġl and
Ġst ream
ĠP ar
Ġqu ality
P ar
_n um
Ġs al
el ves
OR D
( user
Ġwork s
Ġh alf
ens es
v as
Ġpol ice
(" /
u a
Ġsim ple
Add ress
Ġem pty
es h
Up date
ĠC reated
(' .
). Ċ
ĠĠĠĠĠĠĠĠĠĠĠĠĠĠĠĠ ĠĠ
Ġag re
ĠF ROM
Ġco ok
Ġevery thing
il ities
.st atus
Ġrel ations
ext ern
Ġno thing
Ġrun ning
ĉ void
R I
_ a
_C ON
p or
.s ub
re quire
ĠC ity
ĠW est
Ġm or
st ore
E quals
od er
Ġn a
Ġ[ [
Ġ( '
ĠD on
ER S
/ p
.j son
ab or
Ġsome one
_t ext
.c ss
.T ab
ĠS ome
at o
d ouble
Ġsh are
( void
_d ir
Ġ ur
St ack
ĠW orld
. X
str act
H ow
.G eneric
ic les
Ġent ry
Ġchang es
Ġperson al
( A
Ġoff set
_p tr
Ġp ie
ĠJ an
-g roup
m odule
Item s
ĠHow ever
ver age
.F ont
Ġevent s
.m in
Ġinv ol
z a
Ġwho le
Ġneed ed
Ġlik ely
ri ef
OR M
v ersion
Ġf ight
Ġe in
F rame
g en
ĠO ut
avig ation
L ength
il led
qu ence
Ġ! ==
ĠSo ftware
Ġwrit ing
Ġr ate
'] ,Ċ
P anel
in ner
Ġ[ "
Ġt w
c d
Ġ ;Ċ
_st ate
ĠS m
ĠM ark
)) ĊĊ
pro t
ĠM r
m ethod
ustom er
I con
Ġcor rect
( object
ĠM ore
Ġf all
Ġv ol
Ġdevelop ment
ent ly
Ġs i
med i
v ing
P P
ak er
Ġin du
Ġel if
Ġpre t
Ġbelie ve
n s
om et
ĠInt ern
R ect
S o
. error
Re ad
Ġfe atures
Ġmin utes
-- -
as ing
cre t
"> čĊ
. annot
Ġcol lection
' .
Ġsim ilar
Ġt aken
(" %
Or der
'] Ċ
-m d
ĠT H
ac ed
Ġis n
/ j
Ġs on
gr aph
ĠInt eger
Ġn ecess
re en
Ġ um
Ġ\ <
Ġmom ent
Ġbr ing
Ġind ic
ys is
Le vel
ver se
urre nc
_t est
Ġent ire
D own
Ġ}ĊĊ Ċ
( result
ĠRe ad
Ã ¨
M od
Ġtry ing
") ,Ċ
Ġm ember
ĠC or
OD O
- control
un time
ĠS im
D ialog
pl ot
_ on
Ġph ys
} /
Ġn amespace
ĉ čĊ
ac c
Pl ayer
A RE
Ġf oot
Ġbo ard
p art
Ġs us
w ise
ĠM c
Ġp ush
AT A
Ġp lease
ri ed
we et
b it
id ed
V E
ĠS w
U B
Ġt ypes
ed ia
Ġc los
ace book
Wh en
Ġed it
ig ger
Ġen erg
Cont ainer
Ġph ot
ĠC ount
ĠE urope
.I s
ĠR uss
pe ed
ĠS tr
Ġp y
Ġc ult
Ġdef ined
cc ount
Ġob t
.L ocation
Ġth read
il le
Ġinst ead
str ong
ĠS ec
U RE
Ġide a
. se
em y
select ed
Con nection
ac ing
th read
.n ext
Ġc oll
Ġfil m
ist ic
Ġcomp et
Ġcon n
th ough
Ġcom pan
ock et
Ġte ach
= (
Ġph one
Ġact ive
de lete
tr ies
Ġm o
Ġde ath
} );ĊĊ
oc ol
W idget
Ġart icle
ro du
and id
Ñ ĭ
ĠC r
k a
() :
lo od
ĉĉĉ Ċ
Ġal most
Ġs ell
erv let
ri p
Un it
Ġapp lic
Ġcon nect
Ġfe ature
Ġv ia
' ),
Ġl im
ĠĠĠĠĠĠĠĠĠĠĠĠĠĠĠĠĠĠĠĠĠĠĠĠĠĠĠĠĠĠĠĠ ĠĠĠĠĠĠĠĠĠĠĠĠĠĠĠ
ĠG u
Eng ine
Ġen s
Ġen vironment
b lock
HER E
N ULL
g y
t ag
) ).
ex p
Ġcom pl
Ġinst all
Ġcomple te
que ue
atur al
Ġgener al
th on
Ġask ed
o res
( res
Ġres erved
S P
ĠâĢ ¦
Å Ĥ
Ġsign ific
O ff
ĠĠĠĠĠĠĠĠĠĠĠĠĠĠĠĠ ĠĠĠĠĠĠĠĠĠĠĠĠĠ
ĠA g
ĠJ ust
ĠE rror
Ġin fl
ad ata
Ġ icon
ask s
' '
_ LO
? .
ac count
Ġ( *
' )ĊĊ
r ap
_ var
ĠF OR
Ġpart y
ĠY our
c at
str y
. new
bo ot
ĠN ov
Ġv ector
Ġn ormal
Ġf urther
Re pository
Ġd atabase
att le
Ġmus ic
Ġspe ed
Ġd oc
pro cess
IG HT
.p arse
Ġt aking
Ġvi ol
ce ed
ĠA fter
Ġfor ward
Ġc rit
"/ >Ċ
ro t
Ġfa iled
ef ore
Ġconc ern
o e
b a
Ġs ender
Ġter m
h as
=" #
Ġpot ential
N um
Ġpublish ed
.c lose
ĠIm age
str aint
U D
ĠO b
Ġprob ably
l im
" :Ċ
olum e
Ġcon sum
ag ue
ens ions
Ġinvest ig
- year
') ;
-s m
Ġen joy
or ig
er ing
c p
le ased
ple ments
Ġreturn s
p at
B O
ĠH ouse
.L abel
Ġwe ight
igh b
Ġcondition s
Ġex ception
d escription
Ġtr ad
- to
Ġ{ }
Ġmod ule
EN D
. ap
.p rops
Ġcon structor
av es
Ġf avor
ĠN ow
; i
ĠM ain
_ k
er ies
âĢĻ ll
trans form
imest amp
P re
Ġm er
. res
st ant
L ocation
_N AME
Ġlos s
Ġ ĊĊ
n et
Ġeng ine
B lock
Ġiss ues
Ġpar se
ĠB ar
Ġst ay
ĠJ SON
Ġd om
air s
w ner
Ġl ower
", čĊ
ĠD em
uf act
Ġp s
Ġper fect
R L
Ġed uc
l s
em ory
ARR ANT
u ge
Ġex act
. key
al led
e ch
ie f
\ /
o ke
Ġfor mer
al loc
Ġs ix
id a
Ġm argin
Ġhe art
al d
p ack
.getElement ById
ĠW ARRANT
Ġr ather
Ġbuild ing
er man
lic e
Ġquest ions
iz es
le ge
irect ory
Ġj e
Ġc as
pro ps
ut f
Ġse curity
Ġhow ever
we ight
Ġins ide
Ġpres ident
Ch ar
ĠW ITH
.m ap
Ġgr aph
Ġt ag
_st atus
Ġat tempt
op p
us es
ĉ const
Ġr ound
, $
Ġfri ends
Em ail
? >
Res ource
KE Y
os p
. query
ĠN orth
able s
ist rib
_c lass
el lo
Th at
Ð º
pecial ly
ĠPres ident
Ġcamp aign
Ġal t
are a
Ġch all
Ġop port
.C on
Ġenerg y
li ke
. string
ing ton
) *
y y
Ġprof ession
ir th
Ġse g
æ ľ
Ġh or
i ers
c an
Ġbeh ind
Pro duct
f g
ĠS k
.j pg
? :
] ;ĊĊ
Ġcall back
ĠH ttp
Ñ Į
l ong
M S
AT H
Ġr aise
Ġwant ed
row n
ut or
l t
] =
el ine
M A
Ġse par
c s
se mb
D is
bs erv
ĠW ill
Ġpol icy
Ġth ird
ph one
Ġb ed
/ g
. __
ĠIn c
iz ing
.re move
in stance
.t ype
Ġs erv
E ach
Ġh ar
ĠM essage
( key
SE LECT
P os
)) ;čĊ
Ġre comm
Ġtr aining
ĠE nt
ĠCh ar
ic ht
(f ile
Ġp rior
G ame
Ġex it
Param s
.c ore
P C
n es
anc ed
( request
P assword
} >Ċ
Ġm ag
Ġre lease
Ġsh all
ud ent
ĠS outh
and o
: '
.Tab Index
s k
ann er
is set
Ġout side
led ge
Ġ å
ĠR ob
Ġim m
! Ċ
ĠWe b
D es
B C
anc ial
R oute
D ec
fer ences
Ġp urch
ĠM odel
ct or
g n
_st art
_ un
. *
is es
Ġg round
Ġun ique
Ġbe aut
{ "
Ġp our
ĠO ct
Ġt ree
set s
_ res
') ->
_re g
(" \
Ġby te
B l
Ġd ating
Ġm atter
ĠR em
Ġ' ../
ĠA ug
ĠL a
Ġ$ (
ourn al
i am
Ġshow s
w rite
Ġb all
Ġsim ply
Ġf ast
Ġmem ory
A SS
ĠO f
ov ed
ant e
a ul
ist ry
)) );Ċ
Ġf it
< string
Ġpolit ical
anc el
_ .
c ard
.c urrent
o ch
_ image
\ t
# Ċ
( L
Ġindu stry
com ing
Ġex tra
Ġreport ed
.st art
Ġres ources
Ġim g
fl ow
_E X
(n ull
ĠP re
Ġwr ong
inter face
Param eter
n ers
á »
t ure
ers ist
oun try
Ġseem s
al ance
de st
ĉ String
Ġm aint
Ġun it
act ers
ĠT R
if ul
export s
pro ject
App lication
leg ate
Ġt akes
ter m
Ġet c
ust er
Ġappe ar
add ress
Ġf em
h s
Ġh om
, -
Ġdiff icult
Ġcom ing
O pen
Ġset tings
ĠW ar
ĠTh en
Ġaut om
ĠF oundation
Ġqu ite
D escription
Ġb log
i qu
P S
_f ield
J son
SS ION
ĠS ch
ĠL O
Ġdes cri
Ġevery one
Ġpret ty
Ġlong er
Ġm enu
Ġcurrent ly
se c
Ġrelations hip
################ ################
ĠM ap
as et
Ġparam eters
Ġcr ush
" čĊ
IL ITY
ig ration
Ġc out
t otal
Ġn ames
nd ef
") ;
ri end
yn amic
Ġeff ort
Ġact ual
Ġfield s
O UN
t ers
Ġf ix
_m odel
Ġc ases
C A
M y
Inter face
ĠS E
] ]
al le
ĠN ational
ĠArray List
in line
. V
ar a
ref ix
as c
Re ader
ĠÐ ¿
ast ic
( ()
C l
.annot ation
Ġperform ance
ail y
.to String
.n et
view s
. end
ay ers
l ate
ĠA pr
ed eral
'] )
.b ody
Ġhigh er
_f l
c r
al ert
_n ode
ĠG oogle
Ġit self
A uth
urrenc y
Ġsignific ant
app end
Ġres pect
str ap
Ġun a
riter ia
P ORT
.ap ache
Out put
Ġpro gress
Ġm id
ĠM icrosoft
Ġres ource
ab lish
Ġd im
. load
.A pp
Ġd irection
Ġadd itional
ĠĠĠĠĠĠĠĠĠĠĠĠĠĠĠĠ ĠĠĠĠĠĠĠĠ
Ġnum bers
Ġcompan ies
.T h
Ġs ound
user name
Ġstat ement
Ġal ert
Ġcon tract
h ome
_l ength
.Com ponent
e v
. Ex
ï¼ ļ
" ;
ĠH igh
Ġ )ĊĊ
ĠP oint
op h
Ġl ines
-> _
" )ĊĊ
o x
app lication
Ġ ]Ċ
ĊĊĊĊ ĊĊ
Ġso on
ction s
ing er
Ġj oin
ĠP e
Ġ ë
Ġl as
. E
c ss
/ or
ĠSt art
ĠT O
Ġsub s
con n
com ponents
DE BUG
qu are
F unction
end ar
. index
Ġf ill
Ä Ļ
Ġcho ose
h ow
ĠAmeric a
ass ets
-------- ----
ĠV alue
Ġoff ice
Ġv eh
Ġtrans form
ĠAr t
Ġin de
Ġf n
Ġim plements
ang o
ple te
+ "
t mp
am ily
Ġhas h
miss ions
E ST
g t
Pro vider
ĠĠĠĠĠĠĠĠĠĠĠĠĠĠĠĠ ĠĠĠĠĠĠ
Ġfl ag
Ġpartic ip
d en
ĠReturn s
Ġnot e
Ã¼ r
p m
ide os
Ġspec ified
ĠE N
est er
ol id
Ġup on
( std
ĉ v
Ġ' \
u z
Ġv ert
Ġv ict
ĉ self
Ġ" $
. k
Ġgroup s
g ithub
l ang
Ġm ut
T O
Ġv e
ĠP lease
;ĊĊ Ċ
ac cess
Ġ{ "
re a
Ġr isk
ick er
og gle
ĉ while
AN G
.s end
Ġwom an
Ġget s
Ġ ign
ĠI d
_ log
ON E
Ġe vid
ĠH ar
_s ub
Ġend l
Ġinclud ed
() );ĊĊ
ĠA p
ig r
Ġs em
ĠBl ack
d oc
_t able
ĠĠĠĠĠĠĠĠĠĠĠĠĠĠĠĠĠĠĠĠĠĠĠĠĠĠĠĠĠĠĠĠ ĠĠĠĠĠĠĠĠĠĠĠĠĠĠĠĠĠĠĠĠĠĠĠĠĠĠĠĠĠĠĠĠ
- up
Ġca use
Ġ ..
Ġv an
_d ict
Ġf ocus
IN D
CE SS
.L og
Ġmult iple
id o
Ġreg ard
- M
and ler
our se
Ġde g
. U
Ġadd ition
Ġvar ious
Ġrece ive
Ðµ Ð½
ĠH T
Ob j
D F
Ġincre ase
ĠO pen
] ;
Ġcomm it
? Ċ
ateg ories
at ory
sh ip
ĠM ich
Ġh tml
rom ise
Ġle ave
Ġstr ateg
av en
ĠCon sole
k nown
- n
_ LE
.com ponent
Ġb re
S ession
i ance
Ġal ign
typ edef
_ result
ĠW HERE
.s plit
Ġread ing
FA ULT
Ġc lo
Ġnot ice
_p r
ar ter
Ġlo ck
Ġstand ard
et ic
ell ow
Ġp adding
ĠH is
Ġst ates
_c ast
( P
a a
Ġintern al
e an
ĠP RO
ĠK ey
Ġes pecially
m ing
Ġc ross
Ġn ational
_ object
f ilter
Ġs cript
. update
_ i
ĠAss ert
/ core
%% %%
Ġproble ms
ist or
Ġ. =
Ġar ch
Ġwrit ten
Ġm ilit
M ENT
. ch
ca pe
ĠM us
_ config
ĠA PI
fo ot
Ġim ages
end l
. In
F irst
Ġpl atform
.pro t
O ption
st e
ĠT ODO
Ġfor ce
. cont
ĉ echo
ĠD av
P tr
( B
R T
ĠB ase
] ['
Ġann ounc
con sole
ĠP y
d s
. as
Ġpre vent
ap an
Ġ{ '
} </
ĠS ervice
ĠS en
ad or
pro file
T op
Ġit er
p o
I ES
J SON
I E
i ant
ãĢ ģ
_ j
ĠSe pt
_m ap
b um
( context
ĠH ome
i ans
G B
Ġl iving
Ġp attern
( input
ic ient
C ore
Ġent ity
Ġint eg
Ch anged
Ġuse ful
.in fo
Ġto ol
( item
Ġo k
Ġfe ed
I X
Ã© s
ĠNew s
rem ove
err y
ĉĉĉĉ ĉĉĉĉĉ
ip ment
a res
D o
C urrent
. content
.G roup
ustr al
Ġ Ñģ
} )
Ġpop ular
Ġst re
Ġmethod s
_ ERROR
Le ft
c al
bs p
.To String
Ġd ir
Ġallow ed
Ġimp act
") ]Ċ
. config
Ġelement s
Ġpro te
Ġtr ain
. tr
r s
ĠRep ublic
ĠT ask
ar ies
( D
( get
âĢ¦ ĊĊ
Ġrel ated
Ġv ers
Ġs il
Ġ" ";Ċ
Ġc md
Ġtechn ology
.w idth
F loat
ĠU se
B ody
sh ould
.j oin
F ont
ll um
yc le
ĠB rit
Ġm it
Ġs cale
Ġ( _
ern el
") )Ċ
Ġsc ore
/ v
Ġstud ent
U C
.sh ow
Ġa verage
En abled
( ex
com mon
im ation
: @"
ch ie
Ġ ...ĊĊ
r iver
ĠM arch
c ategory
f in
Ġcour t
Ð ²
S erver
Ġcont ainer
- st
_f or
Ġpart s
Ġdec ision
ob s
ou b
m itted
Ġ$ ('#
Ġs aw
Ġappro ach
IC E
Ġsay ing
Ġany one
m eta
S D
Ġs ong
d isplay
O per
out es
Ġch annel
Ġchang ed
Ã ª
Ġfin ally
_n umber
P lease
à ¤
or ing
- re
Ġk ill
Ġdr ug
w indow
Ġcon vert
omb re
Ġw ays
H elper
ĠF irst
( __
ur ity
ĠW indows
e es
Ġm at
r apper
Ġpl us
ang es
" ].
az on
/ t
l at
ast e
Ġpro file
Ġread y
#if ndef
ro te
Ġs ense
G ener
ĠCon fig
om y
ĠJ une
Ġlate st
Ġsa f
Ġreg ion
Ġde ep
w itch
ĠP ark
} `
ĠF rom
I I
Ġc v
Ġre ach
Ġcount er
ĠW ork
ĠU RL
ĠUp date
', čĊ
Ġim medi
c lose
ad os
fer red
Ġweek s
ur g
Ġdam age
Ġl ost
an i
_ lo
Ġhim self
Ġd og
) ]Ċ
ï ¿
p ir
t t
Ġp aper
Ġthe ms
se cond
Ġst aff
ĠIn put
" +
ĠF acebook
Ġal loc
Ġs ched
AC E
Ġthems elves
ĠCom ponent
Ġdr iver
j a
(p ath
Ġc ategory
all s
p u
llum inate
ĠA ction
.b utton
ĠG L
ist ics
Ġo il
Ġst ock
> '
Ġde ad
V AL
Q UE
**************************************************************** ********
Ġch arg
R eturn
Ġf ul
d om
Ġr ules
Ġmod ify
Ġe val
h am
at ement
\ <
ul a
= False
R A
Ġcont ains
Ġst ack
m ar
Ġ{ }Ċ
Ġund efined
A ss
ĠCh ina
ve y
* Ċ
Ġplay ing
) /
act or
Ġb ottom
li er
ĠN umber
Ġcou ple
D C
ĠS O
g or
.set Text
s uccess
com mand
F ilter
ĠO ur
_ item
Ġc tx
Ġro ad
V ersion
c ase
ur t
av ior
y ch
semb ly
ĠPro duct
Ġh eld
a fe
Ġinclud es
< quote
Ġa void
ĠF in
ĠM od
Ġt ab
an o
Ã ±
ipp ing
- e
Ġins ert
t arget
ch an
.M odel
IM E
\ Ċ
Ġm achine
av y
ĠN O
ĠInt er
Ġoper ation
mod al
T ag
] :
Ġprodu ction
Ġare as
Ġre n
_f rom
n bsp
Ġoper ator
m en
app ed
_p er
z en
(" .
.s ave
=" {{
Ġt or
( response
Ġc andid
Ġcon v
a iled
ĠL ib
com p
ur a
ï¿ ½
ĠH ere
Ġarg ument
h ood
Ġest ablish
ograph y
Ġon Click
amb da
Ġs ch
Ġmov ie
Ġse c
Ġact ivity
Ø §
Ġs ql
_ all
inc ip
Ġprovid es
Ġs ys
ack et
Ġwas n
Ġus es
ĠF unction
.g oogle
ĠRes ult
Vis ible
ag ma
el come
ĠS y
ĠC ent
AL SE
ac iÃ³n
EX T
Ġl icense
ĠL ong
Ġacc om
Ġab ility
. height
Act ive
olog ical
ol y
)) ,
.S e
Ġparam eter
pr ite
AB ILITY
.s ervice
ĠG roup
_ query
ĠI tem
in ing
Ġj ud
im s
f ix
ind er
ag ram
Ġfunction s
Ġexper i
ĠE m
Ġro t
Ġp en
.b tn
ĠA S
#if def
Ġcho ice
ĠP age
_P RO
Q U
å ı
ant ity
Â Ń
word s
Ġread only
Ġf lex
prot ected
ĠAn y
Ġchar acters
enc ed
ĠJ uly
il er
C ard
ur ance
Ġre v
.e vent
al y
Ġwon der
ĠP ort
Ġleg al
ro le
Ġt en
Ġgo es
M P
wh ite
): čĊ
)) čĊ
Ġre ference
Ġm is
ĠPro ject
ick s
> &
C ON
Ġre pl
Ġreg ular
St orage
ram ework
Ġgo al
Ġt ouch
.w idget
Ġbu ilt
d es
P art
( re
Ġw orth
h ib
g ame
ĠÐ ²
ac ion
ĠWh ite
(t ype
( `
Ġn atural
Ġin j
Ġcal cul
ĠApr il
. List
Ġassoci ated
ĉ System
~ ~
= [
Ġst orage
Ġby tes
Ġtr avel
Ġs ou
Ġpass ed
! =
as cript
. open
Ġgr id
Ġb us
Ġrec ogn
A b
Ġh on
ĠC enter
Ġpre c
b uild
HT ML
ĠS an
Ġcoun tries
a led
t oken
k t
Ġqu al
L ast
ad ow
Ġman ufact
id ad
j ango
N ext
x f
. a
Ġporn o
ĠP M
er ve
it ing
_ th
c i
= None
g s
Ġlog in
at ives
'] );Ċ
Ä ħ
Ġ ill
I A
child ren
D O
Ġlevel s
Ġ{ {
Ġlook s
Ġ" #
To String
Ġnecess ary
ĠĠĠ Ċ
c ell
En try
Ġ' #
Ġext rem
Select or
Ġplace holder
L oad
Ġre leased
O RE
En umer
ĠT V
SE T
in q
P ress
ĠDep artment
Ġprop erties
Ġres pond
S earch
a el
Ġre qu
ĠB ook
/ Ċ
( st
Ġfin ancial
ick et
_in put
Ġth reat
( in
Str ip
ì Ŀ
Ã§ Ã£o
Ġevid ence
)) ;
ĠB ro
Ġ[ ];Ċ
Ġ ou
b uf
S cript
d at
Ġr ule
# import
=" /
S erial
Ġstart ing
[ index
a e
Ġcon trib
s ession
_ new
ut able
o ber
Ġ" ./
Ġlog ger
Ġrecent ly
Ġreturn ed
č čĊ
)) )Ċ
ition s
Ġse ek
Ġcomm unic
Ġ" .
Ġuser name
E CT
D S
Ġother wise
ĠG erman
. aw
Ad apter
ix el
Ġsystem s
Ġd rop
Ġstruct ure
Ġ$ ("#
enc ies
ann ing
ĠL ink
ĠRes ponse
Ġst ri
Å ¼
ĠD B
æ Ĺ
and roid
sub mit
ot ion
( @
.t est
ĊĊĊĊ ĊĊĊĊ
] ;čĊ
Ġdirect ly
Ġ" %
r is
el ta
A IL
) {čĊ
m ine
ĠĠĠĠĠĠĠĠĠĠĠĠĠĠĠĠ ĠĠĠĠĠĠĠĠĠĠ
( k
b on
as ic
p ite
__ _
M ax
Ġerror s
ĠWh ile
Ġarg uments
Ġens ure
R ight
-b ased
We b
Ġ- =
Ġint rodu
ĠIn st
ĠW ash
ord in
j oin
D atabase
Ġgr ad
Ġus ually
IT E
Prop s
? >Ċ
ĠG o
@ Override
RE F
Ġ ip
ĠA ustral
Ġ ist
View ById
Ġser ious
Ġcustom er
.prot otype
od o
c or
Ġdo or
ĠWITH OUT
Ġpl ant
Ġbeg an
Ġdist ance
() ).
Ġch ance
Ġor d
c ame
pr agma
Ġprot ect
rag ment
ĠN ode
en ing
Ñ ĩ
Ġr oute
ĠS chool
h i
Ġne ighb
A fter
lic it
Ġcon tr
Ġpr imary
A A
.Write Line
util s
Ġb i
R ed
.L inq
. object
Ġlead ers
un ities
Ġg un
on th
ĠDe v
F ILE
Ġcom ments
_l en
ar row
am ount
R ange
s ert
Grid View
Ġup dated
ĠM o
Ġin form
oci ety
al a
A ccess
Ġh ab
Ġc reat
_ arg
ĠJan uary
ĠD ay
") čĊ
up le
d ocument
gor ith
m enu
ĠO ver
b b
.t itle
_ out
Ġle d
ur i
Ġ? ></
g l
Ġb ank
ay ment
ĉ printf
M D
Ġs ample
Ġhand s
ĠV ersion
u ario
Ġoff ers
ity Engine
Ġsh ape
Ġs leep
_p oint
Set tings
Ġa chie
Ġs old
ot a
.b ind
A m
Ġsa fe
St ore
Ġsh ared
Ġpr iv
_V AL
Ġs ens
) {
Ġrem ember
sh ared
e lement
Ġsh oot
V ert
c out
Ġen v
_l abel
Ġ >Ċ
r un
Ġsc ene
( array
de vice
_t itle
ag on
] čĊ
ab y
Ġbe came
bo olean
Ġp ark
ĠC ode
up load
rid ay
ĠSept ember
F e
Ġs en
c ing
F L
C ol
ut s
_p age
in n
Ġim plied
al ing
Ġyour self
.C ount
con f
Ġa ud
_in it
. )
Ġw rote
N G
. Error
ä »
.f or
Ġe qual
ĠRe quest
Ġser ial
Ġallow s
X X
Ġm iddle
ch or
Ã ¸
erv al
.C olumn
read ing
Ġesc ort
ĠAug ust
Ġquick ly
Ġwe ap
ĠC G
rop ri
h o
Ġc op
( struct
ĠB ig
Ġv s
Ġfre qu
. Value
Ġaction s
Ġpro per
Ġin n
Ġobject s
Ġm atrix
av ascript
Ġon es
.g roup
Ġgre en
Ġp aint
ool s
y cl
enc ode
ol t
com ment
. api
D ir
Ġun e
iz ont
.p osition
Ġdes igned
_ val
av i
ir ing
t ab
Ġl ayer
Ġview s
Ġre ve
ra el
ĠO N
r ics
n p
Ġc ore
() );čĊ
M ain
Ġexp ert
ĉĉ čĊ
_ en
Ġ/ >
ut ter
I AL
ail s
ĠK ing
*/ ĊĊ
ĠM et
_ end
add r
or a
Ġ ir
M in
Ġsur pr
Ġre pe
Ġdirect ory
P UT
- S
Ġe lection
h aps
.p re
c m
Val ues
Ġ" Ċ
c olumn
iv il
Log in
in ue
Ġbeaut iful
Ġse cret
(e vent
Ġch at
um s
Ġorig in
Ġeffect s
Ġman agement
ill a
t k
Ġset ting
ĠC our
Ġmass age
ĉ end
Ġhapp y
Ġfin ish
Ġc amera
ĠV er
ĠDem ocr
ĠH er
( Q
con s
it a
Ġ' .
{ }
ĉ C
Ġst uff
Ġ :Ċ
ĠA R
T ask
h idden
er os
IG N
at io
ĠHe alth
ol ute
Ent er
' >
ĠT witter
ĠCount y
s cribe
Ġ= >Ċ
Ġh y
f it
Ġmilit ary
Ġsa le
re quired
n on
boot strap
h old
r im
- old
ĠD own
Ġm ention
cont act
_g roup
od ay
Ġto wn
Ġsol ution
u ate
ell ing
] ->
ot es
ent al
om en
osp ital
ĠS up
_ EN
Ġsl ow
SE SSION
Ġbl ue
ag o
Ġl ives
Ġ ^
. un
in st
en ge
Ġcustom ers
Ġc ast
ud get
ï¼ ģ
ic ens
Ġdeter min
Se lected
_ pl
ue ue
Ġd ark
// ĊĊ
s i
ther n
ĠJ apan
/ w
P U
ĠE ast
ov ie
Ġp ackage
Ġn or
Ġap i
b ot
" ];Ċ
_p ost
ul ate
Ġcl ub
') );Ċ
Ġlo op
PI O
ion e
sh ot
In itial
Ġplay ed
reg ister
rou ght
_m ax
ac ement
m atch
raph ics
A ST
Ġexist ing
Ġcomple x
D A
.C h
.com mon
m o
Ġ' ../../
it o
Ġanal ysis
Ġdel iver
ĠĠĠĠĠĠĠĠĠĠĠĠĠĠĠĠ Ċ
id x
Ã ł
ong o
ĠEng lish
< !--
Ġcomput er
EN SE
Ġp as
Ġr ais
H ash
Ġm obile
Ġo wner
F IG
ĠĠĠĠĠĠĠĠĠĠĠĠĠĠĠĠĠĠĠĠĠĠĠĠĠĠĠĠĠĠĠĠ ĠĠĠĠĠĠĠĠĠĠĠĠĠĠĠĠĠĠĠ
th es
Ġat tr
w d
.t ime
aw n
Ġtreat ment
ĠA c
. View
im pl
m ore
p ass
Ġh a
.f rom
Ġle ading
FF FF
( error
. ui
at ar
ad ers
d ates
Ġz u
Ġfl ow
T arget
Ġinvol ved
Ġi o
par se
$ _
he st
. int
- item
as y
S p
Ġsh ift
N T
Ġt f
_T R
. web
C S
Ġ} )
Ġey es
_ z
' );čĊ
if orn
Ġ{ @
Ġn ice
.l ist
ĠĠĠĠ čĊ
Ġf loor
Ġred irect
ĠU K
( ['
Ġw ish
Ġcap t
leg al
ĠI O
Ġst age
. String
ĠA fr
ig en
ĠS H
De lete
ell s
Ġsol id
Ġmeet ing
Ġwork ed
Ġed itor
in y
Ð ¼
_ read
. Id
e ff
Off set
ch a
US ER
ĉĉ ĠĠĠ
ipp ed
Ġd ict
ĠR un
.h pp
Ġan g
x ml
im ple
Ġmed ical
_t oken
con nect
Ġh our
Ġcont roller
_m essage
U ID
G r
and ed
_C H
Ġbook s
Ġspe ak
am ing
Ġm ount
Rec ord
ĉ struct
.W eb
ond on
Ġ// Ċ
Ġf elt
.A uto
id ge
_p os
P R
Ġmod ern
C ollection
_m sg
C D
ĠL o
Ġsecond s
ib ly
.e quals
Ġintern ational
# pragma
oo th
W riter
i ate
Ġce le
ĠB it
iv o
iv ery
r d
HE CK
Ġc ache
.c ount
Ġro ll
.Re ad
RE D
Ġset up
izont al
model s
arg v
Ġconsider ed
=" ../
set tings
ĠR el
Ġgrow th
Ġm ix
ĠWash ington
Ġpl t
ĠI M
á º
Ġturn ed
ĠDate Time
ĠW ed
( url
Ġ" -
Ġlet ter
As ync
ĠĠĠĠĠĠĠĠĠĠĠĠĠĠĠĠ ĠĠĠĠĠĠĠĠĠĠĠĠ
ĠOct ober
_l ine
Ġatt ention
Ġcol lect
ĠH ash
Ġim ag
T ree
Ġsit uation
et te
_n o
IV E
Ġv on
.t arget
Ġknow ledge
Ġdr ive
.p ost
Ġb lood
Ġc it
pr imary
Ġconfig uration
te e
Ġph oto
is ode
Tr ace
Ġg ave
Ġsh ot
ĠA ir
Ġm other
pr ice
Ġmor ning
)) {Ċ
- x
Ġtr ade
Ġdes c
Ġ&& Ċ
Ġparent s
A pi
å Ī
t ed
w er
Ġ æ
Ġs y
ĠK e
Par ser
å ħ
anc y
Ġpie ce
iforn ia
to String
r an
id ing
PT ION
com es
/ lic
.c lient
E l
L ong
Ġprofession al
ru pt
v a
Ġcomplet ely
Ġpract ice
Ġse lection
R em
in i
Ġc am
RE E
Ġsit es
p a
AT US
Ñģ ÑĤ
arr ant
* (
_ KEY
ĠB utton
ĠF riday
se qu
Ġre ader
Ġm essages
è ¯
Ġbu f
K e
Ġn ov
H P
M sg
al ign
ar ily
Ġ' ,
_w ith
Ġd as
Ġhe ard
at omic
ri al
) [
Ġdis e
@ end
Ġg old
Ġf air
Ġsa les
. Button
str ict
s ave
Ġme asure
Ġ" +
ec ause
View Controller
ĠT able
.p aram
Ġdec ided
(( (
IN FO
Ġopport unity
T e
IC ENSE
cc ording
k i
ĠU N
Ġcont ain
Ġman ager
Ġp ain
ĠF ire
rom e
Ġpl ans
F ound
l ay
ĠDec ember
Ġinfl u
Ã º
ren ch
ĠĠĠĠĠĠĠĠĠĠĠĠĠĠĠĠĠĠĠĠĠĠĠĠĠĠĠĠĠĠĠĠ Ġ
az ing
b rief
c all
wo od
Ġload ed
Ġgr and
/ f
im p
_ U
ST R
âĢ ¢
Ġcred it
.C olor
or ge
QUE ST
Ġdiffer ence
ĠP C
w args
Ġp ub
und ay
Ġf ra
.m ax
Ġtri ed
ann els
s end
Ġreport s
Ġad ult
ä º
Ġcons ist
ĠSt reet
ĠPro gram
S QL
M atrix
ounc il
- A
ĉ w
Ġwho se
Ġrel ig
ĠS ex
Ġg ives
n one
.m essage
( G
.aw t
- right
ĠNov ember
ell ig
ut ive
Ä ĥ
over n
Ġeas ily
Ġide as
ĠÐ ½
/c ss
ly ing
el le
C an
_c olor
Ð¾Ð ²
Ġp air
ng th
Ġs plit
d rop
art y
on a
Ġcap ital
Ġhe ar
Ġex ists
ĉ log
em o
R un
o i
Ġpar ser
ĠM ethod
Ġeduc ation
[ k
Ġlib rary
> ";Ċ
_ UN
ĉ std
od ed
Ġcall s
h ere
R el
Ġbr and
back ground
g a
_add ress
_param s
C ategory
ĠInd ia
_e vent
Ġ ing
R ender
.c l
ump y
Ġp et
F C
ĠA nt
Ex t
Ġchar ge
en ed
gr ad
E O
Ġdep end
Ġ .ĊĊ
fr ame
Ġd f
Ġh uge
ĠP ART
ed s
; ;
ĠA M
Ġbas ic
ĠL et
lic h
Ġar m
Ġst ar
Ġf ederal
W ork
Ġcar ry
ĠIs rael
( obj
={ {
Ġs aved
Ġs yn
Ġconst ant
V ENT
Ġpos itive
Ġcon duct
Ġsk in
Ġear lier
Ġl ayout
ĠI P
O UR
Ġt im
styles heet
_ cl
ĠC ard
++ ){Ċ
Ġtem per
ĠDav id
ĉ try
.d art
Ġwant s
Ġp icture
Ġv ideos
ĠCom m
is ions
_M AX
M apping
- content
ĠE ar
- de
Ġpre m
br uary
Ġcom ponents
Ġthrough out
Ġp ull
Ġp ages
ent e
res pond
Ġg as
cript or
Ġed ge
Ġb ound
A CT
**** **
Ġcre ating
ĠC H
Ġnull ptr
B r
+ '
.c o
> ::
Ġle arning
.L ength
_S H
Ġpat ients
A IN
Ġk ids
Ġcom fort
Ġsh own
ug ins
ĠB ack
ell a
_C L
Ġl at
Ġdis patch
Ġclass es
. at
.b egin
Ġsuccess ful
b an
Ġobt ain
ĠS l
Ġl ack
iter ator
Th read
(s ize
Ġn one
.h as
_ X
s ort
n ap
p et
b in
ĠCan ada
The y
Ġd ans
ĠM at
< td
Ġh air
Ġ' ',Ċ
Ġc u
Ġlaw s
let ed
p ed
Ġp ow
Ġk new
_C OM
_ ,
ĠM ag
id ents
( req
Ġ ),
- center
Ġw ide
ĠA uthor
st ants
Ġjob s
Ġm ath
et imes
Bo olean
Ġs cope
_ is
Ġme as
Ġkey s
el ay
Ġexact ly
'=> '
ĠP aul
m as
ĉ print
(l en
f d
Ġ) ;
. Event
q li
ir it
ield s
om an
ĠT op
Ġv ote
Ġm ask
Ġthem e
- Ċ
Ġpro ps
Ġf ine
Ġwrit er
_ offset
c ar
Ġal tern
Ġc opyright
Ġdest roy
pp er
Ġgener ate
pp ed
âĢĻ d
ĠĠĠĠĠĠ Ċ
m ake
ĠSh ow
Ġb rowser
Ġfavor ite
Ġcare er
Ġhappen ed
( char
Ġrecomm end
Ġl iter
.f ilter
gr ade
ĠÂ £
Ph one
om s
Ġn amed
- label
ip o
ĠO ther
Ġp anel
Ġro ck
S cale
ĉ assert
Ð ´
Ġtr ust
fr ont
Ġdem on
A r
N et
Ġecon omic
foot er
Ġr ace
(n ode
ĠO ption
s plit
Ġphys ical
if est
Ġrem oved
. http
)) ,Ċ
Ġlook ed
' ;
d ing
g est
atur day
/lic enses
Pr ice
Ġd ro
Ġto wards
Ġun s
ĠC L
ĉ static
Ġ rows
Ġdef ine
.re place
Ġf ather
ĠDes ign
ass ign
m ut
De vice
D id
') )Ċ
omet ry
ay load
Ġh istor
ĠP aram
ĠBo olean
Ġn ature
Ġj s
Ġn ation
i h
Ġdis cover
se m
Hand le
ĉ r
ĠTe chn
Ġw all
{ $
@ property
Ġ" ../
Ġex am
.d raw
opp ing
Ġnear ly
Ġco ol
Ġinde pend
RE S
Ġhand ler
ĠMon day
Ġs un
St yles
ous ly
Ġ ĉ
v est
D isplay
( y
atic ally
Ġpred ict
y ing
Ġsom etimes
" ]Ċ
Ġdr ink
Ġb ul
ific ations
. insert
.re g
Ġtest s
Al ignment
Ġal leg
Ġat tribute
ĠN ote
Ġmy self
art s
N ow
Ġinterest ing
li ents
Ġpop ulation
ĠCal ifornia
" I
å ¹
Ġgre ater
ues day
Ġth ous
Ġcost s
Ġla unch
\ Http
k er
b and
ĠPl ay
Ġb and
.sh ape
es ome
art icle
.r f
Ġw er
Ã¡ s
em bers
us r
B A
ic an
et t
valid ate
ult i
Ġimmedi ately
z er
Ġfig ure
o es
ell er
irc le
ĠS ign
.d b
Ġr ank
By tes
Ġproject s
_re c
UL AR
A PI
ĠL ine
P ort
Ġp oll
Ġg iving
id ence
-- Ċ
Ġpl ot
ic ial
Ġw arrant
IT ION
ĠD ouble
Ġbill ion
gorith m
Ġequ ipment
D ATE
Ġ@ "
E E
Ġp le
i ation
Ġhead ers
Ġpro ced
.Component Model
ĠOb ama
Ġp a
ĠB est
im ately
.get String
. \
mp loy
Ġr aw
_b lock
und red
" },Ċ
.Group Layout
Ġb rought
NS String
th row
cre ated
.N ew
_ view
C P
ep s
O p
Ġgr atis
Ġ' "
Ġinter view
"" "Ċ
Ġpart ial
Ġa ria
b ing
A uthor
Bo ok
ĠP at
um an
Us ers
pl us
ĠD irect
ven ue
al pha
UC CESS
ĠC all
Ġ );čĊ
im ated
Ġrem ain
Ġant i
ĠL ondon
Ġsaf ety
PO SE
o les
cont roller
By te
ĠCour t
ĠPh il
ĠAss oci
en a
å Ĳ
_ST R
co in
resh old
Ġb atch
_C lick
entic ation
> ';Ċ
ent y
Ġbegin ning
Ġz ero
ĠCon vert
Ġt err
Ġp aid
Ġincre ased
c atch
-s ize
act ivity
e quals
Ġque ue
Ġ" '
ĠIntern ational
Ġf Ã¼r
urs day
Ġsc ient
all ow
ax is
Ġapp ropri
ed ge
Ġid x
S uccess
ent ifier
: \
x is
Ġmax imum
ark s
Ġb irth
( index
Ġmay be
.p y
file s
Ġlim ited
_ check
lo ok
pl ies
Ġmov ement
'] .
Ġbro ad
ĠB E
ĠUn ityEngine
.c pp
ĠE very
Ad min
Ġf ans
p ared
Ċ ĠĠĠĠĊ
Ġfore ign
Ġp an
Ġt our
ĠOr der
Ġmov ing
Ġa uf
C all
c b
Å Ł
vent ory
ĠS ql
Ġful ly
Click Listener
W ORD
Ġannounc ed
) čĊčĊ
Ġagre ed
ri e
Ġe arn
_l ink
. array
(t ext
Ġmaterial s
, p
ff ff
v g
ĠÂ ©
Ġun less
aj ax
LO G
Ġsex ual
Ġ\ "
- time
Ġco ach
Ġsupport ed
Ġphot os
if orm
.C reate
) ]
ri er
Ġd ialog
av er
ig e
) +
_id x
: [
_m in
ĠC ong
Ġpress ure
Ġteam s
S ign
b egin
ri an
NE SS
L S
Ġimpro ve
ĠS unday
Ġdef inition
ig er
roll ers
Ġthink ing
T emplate
- F
Ġem erg
pl ates
ĠUS A
.set State
ĠAl so
re v
Ġen able
ĠC O
PE CT
Ġcon cept
) -
ĠâĢ ¢
Ġset s
Ġmean ing
em on
ĠCon s
c mp
ed er
ann ed
icens ed
ĠS uper
Ġd aily
Ġmult i
_ u
Ġchall eng
_m ode
ĠP romise
Ġstr ict
j o
int on
( list
On ly
> {
Ġveh icle
í ķ
ĠPl ayer
ĠD el
Ġp ool
. url
nes day
();čĊ čĊ
Ġ" );Ċ
L ocal
. ");Ċ
Ġorgan ization
re nder
ĠApp lication
Ġsum mer
ex pected
N A
Ġr ap
_ obj
Ġsur face
ĠP UR
Ġ}, ĊĊ
Ġvariable s
(m essage
Ġop in
.b ack
Ð° Ð½
Ġwork ers
v m
C o
ught er
Ġm aster
Ġ" ",
Ġst ories
. User
Ġcele br
ines e
B S
ĠCom mand
ash board
Ġo g
k g
. image
.st yle
Ġstep s
ĠB en
( args
ĠP erson
, y
Ġofficial s
| Ċ
Ġsk ills
v c
Ġbuild er
Ġg ar
A ccount
ĠA uth
ç Ķ
'] )Ċ
ĠA T
n n
. Int
SS ERT
Ġeffect ive
LE TE
Ġto ols
AR D
Ġdig ital
D ouble
ĠF ind
R C
Ġin line
/ r
AR AM
AS K
Ġint ent
a ight
_add r
Ġrequest s
.f irst
Ġde bug
Ġsp ent
() ));Ċ
Å Ľ
Ġpr incip
Log ger
clud es
. use
Ġsur v
med ia
ĠFe bruary
ĠM ac
Ġmiss ing
Ġw ife
Ġtalk ing
ĠM ake
Ġc art
Ġloc ated
E nc
- a
ch ron
Ġc ards
Ġgu y
Ġp ers
ĠY es
ate ver
ĠA ng
ol ar
ĠE ven
Ġacc ur
ĠP ower
ĠG old
c lear
Pro cess
Ġrec ords
Ġk illed
.c lear
ĠWARRANT IES
Ġpur pose
pan el
J ECT
ÃŃ a
Ġex erc
W S
/ L
. exports
Ġ__ _
Ġs in
S ervlet
Ġd Ã©
.de lete
ro ke
S l
ug h
ear s
Ġpoint er
Ġh op
all ery
Ġo bs
co very
ĉ char
ĉĉĉĉ ĉĉĉĉĉĉ
ĉ def
oc ity
itch en
ul ations
ĠF IT
Ġ ).
straint s
vent ion
Ġrequ ires
ĠO per
M E
OUN T
al let
Ġn orm
I RE
ex as
Ġprogram s
Ġwe ak
' .$
u ing
ĉ ĠĠĠĠĠĠĠ
Ġm il
Ġf irm
init ely
_VAL UE
ap se
atis f
Ġdem and
_m od
Ġdescri bed
Ġpl aces
V ID
Ġal one
Ġex port
Ġv ec
ĠM ax
Ġactiv ities
ict ures
g ener
Ġm a
Ĥ ¬
Ġexpress ion
C allback
_ content
ĠM ost
Ġtest ing
E C
CH ANT
Ġad just
.Th reading
( ctx
Ġag ree
ig hest
Ġu i
ĠL aw
. Y
> <?
Ġp od
-l g
âĢĿ ĊĊ
Ġdes cribe
ĠEurope an
- sh
ĠPUR POSE
OR Y
Ġcon vers
ĠI lluminate
ĠA v
( ch
? "
ch en
im a
D ocument
Ġoper ations
w in
ĉf unction
. Image
Ġsc en
/ h
ĠS C
Ġexp lo
: %
/** čĊ
N AME
æ Ī
( var
Ġdirect or
ON G
Ġy ield
Ġfe et
ĠS earch
ĠI l
Ġrest aur
du c
Ġint eger
Ġ' ';Ċ
Ġhigh ly
check ed
ĠPART IC
ER CHANT
ï¼ ī
Ġopt im
Q ueue
ĠL I
it ation
Ġtrans port
iss ion
f ill
us ion
ĠĠĠĠĠĠĠĠĠĠĠĠĠĠĠĠ ĠĠĠĠĠĠĠĠĠĠĠĠĠĠ
ĉ bool
- th
u pt
Ġess ential
ant ed
Ġbenef its
ĉ S
' ;čĊ
ik i
Ġgirl s
ic ed
b uffer
] +
Ġso cket
Ġpr ices
ĠF re
Ġs at
Ġw ood
Menu Item
AR G
ĠAd min
OW N
d k
Ġres et
Ġfor ms
ĠÐ ¸
æ ĸ
ĠT uesday
ĠInitial ized
_tr ain
or ary
ateg or
Ġd t
T otal
con struct
il ies
Ġgu ys
Ðµ ÑĢ
Ġin struction
y led
Ġintern et
et adata
ad y
f aces
je ction
ĠJ ack
Ġre ct
[ -
ĠL eg
Ġdev ices
O C
Ġ* čĊ
or ation
ert ain
Ġgu ard
ost ream
Ġen um
.l ayout
Ġ" ;Ċ
vo ke
ĠO k
H ome
( tr
ET H
Ġdel ay
Ġpurch ase
d c
Ġare n
_on ce
ĉĉĉĉ Ċ
r or
d raw
.r un
(m odel
Time out
li k
ĠAr g
. en
Ġf ish
c py
_f e
ERCHANT ABILITY
( X
_ output
? ?
Ġj o
and ard
Ġd oll
error s
_b ase
ĠPARTIC ULAR
Ġle ader
Ġcomp ar
Ġd oub
ĠV is
Stack Trace
- C
ĠSt ud
stit ute
M ore
ĠD escription
W ARE
ad s
ĠÐ º
b ind
= self
em ploy
[ n
. all
- B
& &
al m
Ġcult ure
h ouse
Ġsu ffer
Ġ' %
Ġstr aight
ĠSt ar
ud o
Ġd ed
ĠC OM
Ġconf irm
ĠG ood
.s c
________ ________
D R
Config uration
Date Time
Ġad vert
Ġcould n
as ync
st ack
') čĊ
K it
Ġh ous
Ġme chan
r ate
Ġa udio
ĉc out
co res
Ġsp ot
Ġincre asing
Ġ ##
)) )
point s
Ġcomp ared
l ig
Ġbeh avior
ĠB Y
ĠAt t
c raft
head ers
et e
end region
Ġd etail
U LE
ĠCom mon
ĉ protected
st on
ĠFIT NESS
Ġf resh
"> ĊĊ
.ex ample
ber g
Ġmov ed
ĉ e
ĠS aturday
Ġpay load
Ä ĩ
) :ĊĊ
Ġbe y
ur er
< script
Ġs ymbol
Ġass um
Ġp ul
E ffect
Ġh undred
To ol
ak ed
con nection
Ġvo ice
Ġp d
Ġtrans action
Ġlink s
E rr
ĠInd ian
T C
atal og
n i
s ign
<< "
j i
y a
Ġdemon str
ul ated
. St
Ġinst it
Ġbo ost
Ġcell s
ol ic
.P ro
: </
Event Listener
ify ing
ĠD i
or row
.ex ecute
Ġcol lege
Y our
Ġlarg est
.d is
Ġqu i
Ġindividual s
_b uffer
Ġn g
S A
ĠCont rol
Ġs ing
Ġsu it
ĠĠĠĠ ĉ
S G
Ġj ump
Ġsm art
om a
ĠEx p
Ġ' -
Ġass ist
Ġsuccess fully
s ys
ĠC re
_ ref
ĠTh ursday
Ġb ur
ĠÐ ´
Ġbey ond
Ġn odes
D etails
in ct
ĠJ ames
Ġa ffect
ex ception
Ġtype of
( čĊ
- se
Ġf etch
` ,
Ġcrush er
} .
ĠB O
Sh ow
Ġr ates
Ġb on
- icon
ĠMed ia
RE SS
ĠVal id
Ð¾Ð »
Ġf uck
ack s
Ġstud ies
M e
Ġown ers
} else
Ġgrow ing
Var iable
ĠB el
.r andom
v ement
on ym
( F
ĠF ALSE
Ġtor ch
( row
ig o
struct ure
Ġcertain ly
D ep
ĠG reen
quest ion
Ġadd ing
ĠDe velop
_ def
Ġm ach
= %
ĉĉ Ġ
cond s
Pro ject
Ġre ject
Ġ Î
Ġpo or
Ġaw are
ĠB uild
ĠBrit ish
ĠN E
Ġnum er
re es
cl aim
Ġm ock
Ġo m
Ġs cre
OL D
. pl
el er
Ġcor respond
_ HE
Ġb inary
_ order
ĠS QL
Ġadv ant
Ġpre v
. [
.assert Equal
pl ier
ar p
Ġclos ed
Ġenc our
ĠQ String
a ud
Ġdevelop ed
Ġper mission
.de bug
oper ator
Ġ' Ċ
Ġs ym
at ively
Ã© e
-c olor
ĠG ET
k y
Ġal though
_re quest
_e lement
........ ........
_D ATA
Ġam azing
Ġs b
ĠDef ault
Event s
Ġfail ure
ac le
Prop erties
Ġd ream
Ġdist r
Ġa u
Ġgener ated
æ ķ
ĠTe am
U SE
Ġin come
Ġey e
_n ot
" ],
_ form
S upport
ord ers
.P rint
v ille
ĠWed nesday
ol ver
Ġopp os
is ation
ol a
C lose
< p
_w idth
In valid
x b
Ġstr ugg
_ action
Ġt xt
ĠP ath
al ar
ĠM ERCHANTABILITY
s ervice
ĠMich ael
able View
De bug
ok es
S he
Ġgu ess
ĠJ ava
_P ATH
Ġparticular ly
ĠI I
Ġd omain
å¹ ´
Ġredu ce
- left
re al
Ġappe ars
Ġcom o
ĠUn it
ĠG overn
al i
alle l
ĠJ ew
_ I
Ġc os
.c olor
ĠG lobal
Ġte le
b en
_ trans
Ġreason s
Ġem b
ens ity
l ines
om in
S creen
Ð° ÑĤ
pect s
cl ip
fo o
re nt
Ġa f
Ġd anger
il ing
N ames
O ur
Ġdistrib ution
Wh ile
S L
W rite
Ġg oto
Ġcolor s
Ġpower ful
k in
Ġdep th
erc ial
ĠCong ress
ĠMark et
D b
u nder
ĠL ast
Ã Ł
g reg
Ġpost s
_ URL
ot os
D on
Ġm icro
Ġar rest
Ð ¿
Ġ( @
ĠH ot
ĠInd ex
; &
# !
ĠN or
ĠC ap
- (
Ġinterest ed
pe ar
Ġre nt
Ġal bum
ol icy
.l ang
. trans
. format
Ġ{ čĊčĊ
ph ere
Ġax is
ĠB usiness
ersist ence
ur r
Ġmin imum
end or
ĠS D
ĠIntern et
å ¤
Ex p
iver se
M M
Ġob vious
Ġbas is
Ġsc ience
Ġb udget
iz ations
P A
Ġfl ags
pre t
LO CK
Ġvari ety
Ġtr uth
d t
Ġg one
Ġb attle
< std
ĠS il
r f
ud a
Ġer ot
ĠC am
Ġst ation
Ġ' </
chem e
ĠS un
Ġfin ished
Ġsh op
ĠK ore
Ġe ight
_RE G
N D
> ,
"> <?
(n um
ĉ inline
Trans action
. On
Ġm ail
re y
result s
Ġn av
IM IT
_id s
M ake
å Ĭ
Mod al
ĠLO G
ĠS ur
Ġinstance of
Ġover all
ĠIn formation
Ġcon struction
_F ILE
b ut
Ġmed ic
Ġd uration
it ness
ag ent
A V
Ġse ven
ol f
Ġ} }Ċ
" ],Ċ
Ġcall ing
Ġan s
th rows
or izontal
Ġuse State
.f l
ĠSt atus
ĠOn line
R R
ĠR ich
ĠH ill
Ġbr ain
Ġfollow ed
em ic
Ġsl ight
Ġins urance
.A rray
Ġab stract
ĠS um
red irect
own er
( msg
ĠCl inton
N on
ĉ ex
Ġv olume
ĠEvent Args
- L
ĠD im
ĠM art
Ġc ursor
Ġimplement ation
urre d
Ġlarg er
);ĊĊ Ċ
' +
. transform
Ġup load
ĠĠĠĠĠĠĠĠĠĠĠĠĠĠĠĠĠĠĠĠĠĠĠĠĠĠĠĠĠĠĠĠ ĠĠĠĠĠĠĠĠĠĠĠĠĠĠĠĠĠĠĠĠĠĠĠ
D raw
n el
ĉf loat
q rt
ĠN etwork
Ġt it
A xis
. android
Ġcomplet ed
Ġm ur
Ġcolumn s
x c
Ġsup ply
im inal
Ġs pr
================================ ================================
Ġun its
( u
m i
re place
[ key
à ¹
ant ic
Ġpay ment
, B
ĠApp le
g in
Re quired
# +
land s
Ġs qu
Ġfact or
de c
Ġstre ngth
Ġbo y
Ġb alance
Ġs ources
s creen
-t op
ĠAm azon
Ġh idden
Ðµ ÑĤ
_ client
Ġe at
.d isplay
ĠÂ »
Ġtr igger
an ager
Ġt ro
Ġclaim s
f ord
ĠCom pany
Ġg ift
, :
_ app
h andle
Ġprodu ce
/ lib
Ġ- *
ĉ set
'] ;
ar c
and er
ĠEng ine
Ġat tributes
t ask
< =
( N
Ġw arm
wh ich
ĠF ore
agn ost
m ys
Ġt al
ĠS al
g i
ĠP rint
ĠTR UE
ĠÐ ¾
. UI
Ġfl ash
rop erty
. location
ĠM ill
b i
con tr
.re quest
ĠS am
Ġneg ative
k it
Ġset t
.print StackTrace
ab e
ĉ i
Ġb urn
Ġs ociety
C ache
ĠSec urity
.model s
ĠWARRANT Y
_ up
ce ive
Ġc lients
.T r
Ġprovid ing
Ġr out
m aterial
Ġ|| Ċ
ĠS er
ĠOff ice
FT WARE
Ġ' $
Ġf oc
Ġexc ell
Ġc at
n ormal
Ġdeter mine
ĉ uint
P ane
